{
  "version": "1.0",
  "truncation": {
    "direction": "Right",
    "max_length": 256,
    "strategy": "LongestFirst",
    "stride": 0
  },
  "padding": null,
  "added_tokens": [
    {
      "id": 0,
      "content": "[PAD]",
      "single_word": false,
      "lstrip": false,
      "rstrip": false,
      "normalized": false,
      "special": true
    },
    {
      "id": 1,
      "content": "[UNK]",
      "single_word": false,
      "lstrip": false,
      "rstrip": false,
      "normalized": false,
      "special": true
    },
    {
      "id": 2,
      "content": "[CLS]",
      "single_word": false,
      "lstrip": false,
      "rstrip": false,
      "normalized": false,
      "special": true
    },
    {
      "id": 3,
      "content": "[SEP]",
      "single_word": false,
      "lstrip": false,
      "rstrip": false,
      "normalized": false,
      "special": true
    },
    {
      "id": 4,
      "content": "[MASK]",
      "single_word": false,
      "lstrip": false,
      "rstrip": false,
      "normalized": false,
      "special": true
    }
  ],
  "normalizer": {
    "type": "BertNormalizer",
    "clean_text": true,
    "handle_chinese_chars": true,
    "strip_accents": null,
    "lowercase": true
  },
  "pre_tokenizer": {
    "type": "BertPreTokenizer"
  },
  "post_processor": {
    "type": "TemplateProcessing",
    "single": [
      {
        "SpecialToken": {
          "id": "[CLS]",
          "type_id": 0
        }
      },
      {
        "Sequence": {
          "id": "A",
          "type_id": 0
        }
      },
      {
        "SpecialToken": {
          "id": "[SEP]",
          "type_id": 0
        }
      }
    ],
    "pair": [
      {
        "SpecialToken": {
          "id": "[CLS]",
          "type_id": 0
        }
      },
      {
        "Sequence": {
          "id": "A",
          "type_id": 0
        }
      },
      {
        "SpecialToken": {
          "id": "[SEP]",
          "type_id": 0
        }
      },
      {
        "Sequence": {
          "id": "B",
          "type_id": 1
        }
      },
      {
        "SpecialToken": {
          "id": "[SEP]",
          "type_id": 1
        }
      }
    ],
    "special_tokens": {
      "[CLS]": {
        "id": "[CLS]",
        "ids": [
          2
        ],
        "tokens": [
          "[CLS]"
        ]
      },
      "[SEP]": {
        "id": "[SEP]",
        "ids": [
          3
        ],
        "tokens": [
          "[SEP]"
        ]
      }
    }
  },
  "decoder": {
    "type": "WordPiece",
    "prefix": "##",
    "cleanup": true
  },
  "model": {
    "type": "WordPiece",
    "unk_token": "[UNK]",
    "continuing_subword_prefix": "##",
    "max_input_chars_per_word": 100,
    "vocab": {
      "[PAD]": 0,
      "[UNK]": 1,
      "[CLS]": 2,
      "[SEP]": 3,
      "[MASK]": 4,
      "!": 5,
      "'": 6,
      "(": 7,
      ")": 8,
      ",": 9,
      "-": 10,
      ".": 11,
      "0": 12,
      "1": 13,
      "2": 14,
      "3": 15,
      "4": 16,
      "5": 17,
      "6": 18,
      "7": 19,
      "8": 20,
      "9": 21,
      "?": 22,
      "a": 23,
      "b": 24,
      "c": 25,
      "d": 26,
      "e": 27,
      "f": 28,
      "g": 29,
      "h": 30,
      "i": 31,
      "j": 32,
      "k": 33,
      "l": 34,
      "m": 35,
      "n": 36,
      "o": 37,
      "q": 38,
      "r": 39,
      "s": 40,
      "t": 41,
      "u": 42,
      "w": 43,
      "x": 44,
      "y": 45,
      "##s": 46,
      "##e": 47,
      "##t": 48,
      "##r": 49,
      "##a": 50,
      "##u": 51,
      "##d": 52,
      "##n": 53,
      "##h": 54,
      "##y": 55,
      "##i": 56,
      "##b": 57,
      "##q": 58,
      "##o": 59,
      "##g": 60,
      "##k": 61,
      "##l": 62,
      "##x": 63,
      "##m": 64,
      "##c": 65,
      "##w": 66,
      "##j": 67,
      "##f": 68,
      "##1": 69,
      "##0": 70,
      "##3": 71,
      "##9": 72,
      "##2": 73,
      "##5": 74,
      "##6": 75,
      "##8": 76,
      "##4": 77,
      "##7": 78,
      "##aa": 79,
      "##ad": 80,
      "##ay": 81,
      "##oo": 82,
      "##an": 83,
      "##ii": 84,
      "##ee": 85,
      "##ka": 86,
      "##ar": 87,
      "##al": 88,
      "##ha": 89,
      "##ax": 90,
      "##aan": 91,
      "ay": 92,
      "##da": 93,
      "##ada": 94,
      "ka": 95,
      "oo": 96,
      "##iy": 97,
      "ku": 98,
      "##aal": 99,
      "la": 100,
      "##ey": 101,
      "##uu": 102,
      "in": 103,
      "##in": 104,
      "##ga": 105,
      "wax": 106,
      "ah": 107,
      "##yo": 108,
      "##ta": 109,
      "##ab": 110,
      "##ir": 111,
      "iyo": 112,
      "ee": 113,
      "##id": 114,
      "##sh": 115,
      "dh": 116,
      "soo": 117,
      "##aar": 118,
      "##aas": 119,
      "##aad": 120,
      "##gu": 121,
      "##il": 122,
      "##aha": 123,
      "sh": 124,
      "ayaa": 125,
      "##am": 126,
      "uu": 127,
      "##een": 128,
      "##as": 129,
      "##adda": 130,
      "##or": 131,
      "##ag": 132,
      "is": 133,
      "dha": 134,
      "##kii": 135,
      "##ah": 136,
      "##is": 137,
      "mar": 138,
      "##eyn": 139,
      "##eeg": 140,
      "##im": 141,
      "##iga": 142,
      "kal": 143,
      "mu": 144,
      "##aab": 145,
      "##ul": 146,
      "##san": 147,
      "##ow": 148,
      "##ib": 149,
      "##eed": 150,
      "##ur": 151,
      "##oon": 152,
      "##iis": 153,
      "##tay": 154,
      "##ac": 155,
      "##aam": 156,
      "##iin": 157,
      "##maal": 158,
      "##ol": 159,
      "##el": 160,
      "si": 161,
      "##iya": 162,
      "soomaal": 163,
      "##eey": 164,
      "##ig": 165,
      "loo": 166,
      "so": 167,
      "##na": 168,
      "##eer": 169,
      "##alka": 170,
      "##ed": 171,
      "##ahay": 172,
      "mad": 173,
      "lagu": 174,
      "sha": 175,
      "sheeg": 176,
      "##ud": 177,
      "waxaa": 178,
      "##adan": 179,
      "mid": 180,
      "hor": 181,
      "##agaal": 182,
      "waa": 183,
      "war": 184,
      "madax": 185,
      "##and": 186,
      "aan": 187,
      "waxa": 188,
      "##ob": 189,
      "##iir": 190,
      "ugu": 191,
      "ar": 192,
      "had": 193,
      "##er": 194,
      "##aw": 195,
      "##eys": 196,
      "kale": 197,
      "jir": 198,
      "##to": 199,
      "##anka": 200,
      "##ash": 201,
      "dad": 202,
      "##ku": 203,
      "##ayn": 204,
      "##ub": 205,
      "##ays": 206,
      "##di": 207,
      "##weyn": 208,
      "##owl": 209,
      "##aah": 210,
      "waxaan": 211,
      "was": 212,
      "sheegay": 213,
      "soomaaliya": 214,
      "##ih": 215,
      "ma": 216,
      "##ood": 217,
      "am": 218,
      "doon": 219,
      "##aanka": 220,
      "##oob": 221,
      "sid": 222,
      "max": 223,
      "##us": 224,
      "##uur": 225,
      "##mal": 226,
      "##ooy": 227,
      "##ba": 228,
      "de": 229,
      "dowl": 230,
      "cii": 231,
      "dalka": 232,
      "badan": 233,
      "magaal": 234,
      "##aasi": 235,
      "##eel": 236,
      "##add": 237,
      "laga": 238,
      "waxay": 239,
      "##mada": 240,
      "madaxweyn": 241,
      "##dh": 242,
      "somal": 243,
      "gud": 244,
      "gob": 245,
      "##inta": 246,
      "gal": 247,
      "##af": 248,
      "##ix": 249,
      "##oor": 250,
      "qab": 251,
      "qo": 252,
      "##um": 253,
      "##la": 254,
      "##aya": 255,
      "qar": 256,
      "aad": 257,
      "inay": 258,
      "##aq": 259,
      "##day": 260,
      "xil": 261,
      "gaar": 262,
      "##aaf": 263,
      "##ayo": 264,
      "##sho": 265,
      "gobol": 266,
      "dhac": 267,
      "##aag": 268,
      "cab": 269,
      "##ex": 270,
      "##un": 271,
      "magaalada": 272,
      "bar": 273,
      "kar": 274,
      "##ux": 275,
      "##og": 276,
      "##kh": 277,
      "##oq": 278,
      "##uul": 279,
      "deg": 280,
      "##en": 281,
      "kala": 282,
      "##kan": 283,
      "il": 284,
      "##ug": 285,
      "dib": 286,
      "dar": 287,
      "iy": 288,
      "shaq": 289,
      "##ool": 290,
      "##on": 291,
      "##sha": 292,
      "al": 293,
      "af": 294,
      "##aac": 295,
      "soc": 296,
      "qaad": 297,
      "##iyay": 298,
      "##ooyin": 299,
      "qor": 300,
      "##iland": 301,
      "dal": 302,
      "kuw": 303,
      "##ti": 304,
      "wux": 305,
      "sida": 306,
      "##uud": 307,
      "hal": 308,
      "ahaa": 309,
      "maxam": 310,
      "wuxuu": 311,
      "##maan": 312,
      "muq": 313,
      "somaliland": 314,
      "far": 315,
      "tahay": 316,
      "##ooda": 317,
      "san": 318,
      "##disho": 319,
      "tal": 320,
      "maam": 321,
      "##iyo": 322,
      "##oog": 323,
      "ciida": 324,
      "##aalka": 325,
      "kul": 326,
      "##ihiin": 327,
      "##adii": 328,
      "tir": 329,
      "muqdisho": 330,
      "sam": 331,
      "shir": 332,
      "yahay": 333,
      "maamul": 334,
      "dadka": 335,
      "gar": 336,
      "wasiir": 337,
      "##se": 338,
      "dowladda": 339,
      "ad": 340,
      "door": 341,
      "##aaw": 342,
      "mud": 343,
      "qof": 344,
      "##hay": 345,
      "dhaq": 346,
      "##ana": 347,
      "##aanta": 348,
      "waxaana": 349,
      "##ida": 350,
      "##it": 351,
      "xu": 352,
      "sii": 353,
      "markii": 354,
      "lab": 355,
      "dhex": 356,
      "dagaal": 357,
      "##soo": 358,
      "wasaar": 359,
      "muu": 360,
      "bax": 361,
      "##tii": 362,
      "##iisa": 363,
      "wada": 364,
      "noq": 365,
      "sar": 366,
      "arr": 367,
      "##sa": 368,
      "##eeyay": 369,
      "uga": 370,
      "20": 371,
      "##aaq": 372,
      "##od": 373,
      "hadl": 374,
      "maal": 375,
      "##eeda": 376,
      "ab": 377,
      "##ayaa": 378,
      "##le": 379,
      "##do": 380,
      "inuu": 381,
      "##miy": 382,
      "kh": 383,
      "##adaha": 384,
      "un": 385,
      "##iinta": 386,
      "##kaan": 387,
      "##aga": 388,
      "##amb": 389,
      "xir": 390,
      "##arka": 391,
      "gobolka": 392,
      "lah": 393,
      "##kaas": 394,
      "maxamed": 395,
      "##awl": 396,
      "mas": 397,
      "##dii": 398,
      "##ma": 399,
      "maanta": 400,
      "##iyaar": 401,
      "isku": 402,
      "##ayaan": 403,
      "##eh": 404,
      "##aay": 405,
      "gudd": 406,
      "madaxweynaha": 407,
      "##ali": 408,
      "bal": 409,
      "saar": 410,
      "##ri": 411,
      "##land": 412,
      "dhin": 413,
      "sidoo": 414,
      "##sad": 415,
      "##iyey": 416,
      "xas": 417,
      "##lam": 418,
      "du": 419,
      "yihiin": 420,
      "##abka": 421,
      "##idh": 422,
      "bil": 423,
      "##iyeed": 424,
      "##ooyinka": 425,
      "dhaw": 426,
      "ciidamada": 427,
      "dhig": 428,
      "baar": 429,
      "##sta": 430,
      "siy": 431,
      "ahaan": 432,
      "##ayd": 433,
      "##aaj": 434,
      "hel": 435,
      "##yada": 436,
      "shar": 437,
      "koo": 438,
      "##uum": 439,
      "doorash": 440,
      "##tland": 441,
      "hore": 442,
      "aq": 443,
      "untland": 444,
      "shac": 445,
      "##taa": 446,
      "##iid": 447,
      "damb": 448,
      "ayuu": 449,
      "dhal": 450,
      "gol": 451,
      "##aasha": 452,
      "##ihii": 453,
      "shab": 454,
      "##ia": 455,
      "wal": 456,
      "##gac": 457,
      "##oomiy": 458,
      "##aat": 459,
      "dil": 460,
      "##ic": 461,
      "wa": 462,
      "##kaasi": 463,
      "deeg": 464,
      "##om": 465,
      "magac": 466,
      "wad": 467,
      "##ayb": 468,
      "##iiska": 469,
      "##imaha": 470,
      "xar": 471,
      "cus": 472,
      "##si": 473,
      "tirsan": 474,
      "dhacay": 475,
      "leh": 476,
      "##iil": 477,
      "taag": 478,
      "ama": 479,
      "ciid": 480,
      "madaxweyne": 481,
      "car": 482,
      "##aadka": 483,
      "ra": 484,
      "hoo": 485,
      "soomaaliyeed": 486,
      "qaar": 487,
      "marka": 488,
      "##abad": 489,
      "##eysa": 490,
      "##abab": 491,
      "##no": 492,
      "##aakii": 493,
      "qayb": 494,
      "siyaas": 495,
      "an": 496,
      "looga": 497,
      "dham": 498,
      "cabd": 499,
      "##mo": 500,
      "##uun": 501,
      "hay": 502,
      "##dhib": 503,
      "maamulka": 504,
      "dawl": 505,
      "og": 506,
      "##med": 507,
      "yar": 508,
      "##eyb": 509,
      "xildhib": 510,
      "##alay": 511,
      "##ya": 512,
      "fur": 513,
      "ax": 514,
      "weer": 515,
      "loogu": 516,
      "he": 517,
      "weyn": 518,
      "##imada": 519,
      "##aash": 520,
      "koox": 521,
      "nin": 522,
      "fed": 523,
      "xuk": 524,
      "##taan": 525,
      "qeyb": 526,
      "dhis": 527,
      "feder": 528,
      "##shay": 529,
      "xildhibaan": 530,
      "hadlay": 531,
      "ban": 532,
      "dhinac": 533,
      "kor": 534,
      "bix": 535,
      "##kiisa": 536,
      "cusub": 537,
      "##umar": 538,
      "isla": 539,
      "shee": 540,
      "iyad": 541,
      "baah": 542,
      "bad": 543,
      "dhow": 544,
      "golaha": 545,
      "dan": 546,
      "201": 547,
      "##iyada": 548,
      "bul": 549,
      "##ish": 550,
      "##eenka": 551,
      "cabdi": 552,
      "go": 553,
      "shacabka": 554,
      "cad": 555,
      "##iim": 556,
      "sug": 557,
      "##lin": 558,
      "diyaar": 559,
      "xis": 560,
      "shabaab": 561,
      "as": 562,
      "cali": 563,
      "meel": 564,
      "##eeyey": 565,
      "##imo": 566,
      "kuwa": 567,
      "joog": 568,
      "##gal": 569,
      "ken": 570,
      "##shada": 571,
      "xasan": 572,
      "caas": 573,
      "yir": 574,
      "im": 575,
      "sal": 576,
      "hog": 577,
      "baarlam": 578,
      "##iyadda": 579,
      "wasiirka": 580,
      "##siga": 581,
      "kad": 582,
      "##wan": 583,
      "id": 584,
      "##tan": 585,
      "weerar": 586,
      "warb": 587,
      "har": 588,
      "inta": 589,
      "##aada": 590,
      "##ilm": 591,
      "##aysa": 592,
      "axmed": 593,
      "##kanka": 594,
      "it": 595,
      "leey": 596,
      "aw": 597,
      "##naa": 598,
      "guud": 599,
      "##iyaha": 600,
      "kenya": 601,
      "federaalka": 602,
      "mac": 603,
      "##agoo": 604,
      "##kaana": 605,
      "xukuum": 606,
      "xus": 607,
      "hab": 608,
      "##eeyo": 609,
      "muuq": 610,
      "lahaa": 611,
      "##iib": 612,
      "##ayay": 613,
      "haddii": 614,
      "gu": 615,
      "gan": 616,
      "hesh": 617,
      "labada": 618,
      "iyadoo": 619,
      "##teen": 620,
      "guddoomiy": 621,
      "xaf": 622,
      "##mad": 623,
      "kadib": 624,
      "dhib": 625,
      "qal": 626,
      "goob": 627,
      "##ane": 628,
      "caal": 629,
      "dheer": 630,
      "dhan": 631,
      "xub": 632,
      "arrimaha": 633,
      "jira": 634,
      "sabab": 635,
      "gac": 636,
      "cod": 637,
      "kasta": 638,
      "xaq": 639,
      "gur": 640,
      "xig": 641,
      "##eyso": 642,
      "gaad": 643,
      "yiri": 644,
      "##eedka": 645,
      "caalam": 646,
      "masuul": 647,
      "itoob": 648,
      "na": 649,
      "dab": 650,
      "##aale": 651,
      "##st": 652,
      "##at": 653,
      "##ro": 654,
      "xisb": 655,
      "##re": 656,
      "##may": 657,
      "duwan": 658,
      "sax": 659,
      "qarax": 660,
      "hadda": 661,
      "guul": 662,
      "doono": 663,
      "##iyaan": 664,
      "hadal": 665,
      "##isay": 666,
      "##eeya": 667,
      "##daha": 668,
      "##uuq": 669,
      "taas": 670,
      "xoog": 671,
      "ur": 672,
      "sanad": 673,
      "sidii": 674,
      "xaal": 675,
      "##eg": 676,
      "##ayso": 677,
      "waan": 678,
      "haw": 679,
      "ciidanka": 680,
      "##adeed": 681,
      "itoobiya": 682,
      "baarlamaanka": 683,
      "jeed": 684,
      "##lada": 685,
      "##anta": 686,
      "kasoo": 687,
      "##adu": 688,
      "qaaday": 689,
      "##iska": 690,
      "afri": 691,
      "##bar": 692,
      "sare": 693,
      "xiriir": 694,
      "kulan": 695,
      "ganac": 696,
      "keen": 697,
      "iska": 698,
      "##aayo": 699,
      "##eyd": 700,
      "saf": 701,
      "##aalaha": 702,
      "yim": 703,
      "amn": 704,
      "gel": 705,
      "baxay": 706,
      "ha": 707,
      "##aabo": 708,
      "bulshada": 709,
      "##uq": 710,
      "degmada": 711,
      "int": 712,
      "tag": 713,
      "howl": 714,
      "##eesh": 715,
      "isu": 716,
      "isaga": 717,
      "##eb": 718,
      "##adh": 719,
      "##kaa": 720,
      "wasaaradda": 721,
      "kam": 722,
      "##ashada": 723,
      "maq": 724,
      "lac": 725,
      "##eysan": 726,
      "dir": 727,
      "bur": 728,
      "##kooda": 729,
      "sheekh": 730,
      "sharc": 731,
      "gab": 732,
      "kha": 733,
      "jiray": 734,
      "balse": 735,
      "yidh": 736,
      "##aax": 737,
      "##uf": 738,
      "##00": 739,
      "##uus": 740,
      "##iix": 741,
      "aqoon": 742,
      "urur": 743,
      "##aajo": 744,
      "xarun": 745,
      "muh": 746,
      "##uh": 747,
      "on": 748,
      "##uux": 749,
      "maray": 750,
      "ilaa": 751,
      "wan": 752,
      "nool": 753,
      "qaab": 754,
      "##aabay": 755,
      "##yar": 756,
      "##ij": 757,
      "reer": 758,
      "##saday": 759,
      "##aakiin": 760,
      "ahayd": 761,
      "waq": 762,
      "deegaanka": 763,
      "raiis": 764,
      "##eesha": 765,
      "taageer": 766,
      "##iyeen": 767,
      "socda": 768,
      "aadan": 769,
      "farm": 770,
      "doorashada": 771,
      "##adka": 772,
      "##ahan": 773,
      "##eeb": 774,
      "19": 775,
      "noqon": 776,
      "##dob": 777,
      "##jin": 778,
      "hub": 779,
      "##fur": 780,
      "ayaan": 781,
      "laakiin": 782,
      "dhag": 783,
      "farmaajo": 784,
      "##maha": 785,
      "lacag": 786,
      "noo": 787,
      "##lo": 788,
      "qaranka": 789,
      "tar": 790,
      "markaana": 791,
      "nabad": 792,
      "##ec": 793,
      "xukuumadda": 794,
      "##aado": 795,
      "bool": 796,
      "tan": 797,
      "dhaaw": 798,
      "kamid": 799,
      "##oos": 800,
      "##ado": 801,
      "han": 802,
      "mudane": 803,
      "wel": 804,
      "koob": 805,
      "galay": 806,
      "caaf": 807,
      "##aahi": 808,
      "dhul": 809,
      "##kar": 810,
      "jaw": 811,
      "cid": 812,
      "marey": 813,
      "arrin": 814,
      "er": 815,
      "caafim": 816,
      "##madda": 817,
      "kaga": 818,
      "harg": 819,
      "dhaawac": 820,
      "##if": 821,
      "##eysay": 822,
      "baaq": 823,
      "boq": 824,
      "##ees": 825,
      "jam": 826,
      "mil": 827,
      "laba": 828,
      "xog": 829,
      "##iic": 830,
      "adeeg": 831,
      "karo": 832,
      "sheegtay": 833,
      "amniga": 834,
      "ciyaar": 835,
      "##awir": 836,
      "wanaag": 837,
      "##sii": 838,
      "##iso": 839,
      "##eynta": 840,
      "somalia": 841,
      "##ilmaam": 842,
      "##iye": 843,
      "rab": 844,
      "##nu": 845,
      "wadd": 846,
      "##aadir": 847,
      "##oonka": 848,
      "leeyahay": 849,
      "xaqii": 850,
      "daaw": 851,
      "dhanka": 852,
      "isb": 853,
      "xill": 854,
      "##kood": 855,
      "deegaan": 856,
      "madaxda": 857,
      "##igii": 858,
      "aysan": 859,
      "##gan": 860,
      "mus": 861,
      "fil": 862,
      "heshiis": 863,
      "kii": 864,
      "mur": 865,
      "maalin": 866,
      "mal": 867,
      "##asho": 868,
      "muhiim": 869,
      "halka": 870,
      "##yay": 871,
      "mah": 872,
      "afrika": 873,
      "##tir": 874,
      "xarunta": 875,
      "dowlad": 876,
      "ras": 877,
      "gudb": 878,
      "##mi": 879,
      "##mud": 880,
      "yidhi": 881,
      "sawir": 882,
      "gudaha": 883,
      "##gel": 884,
      "onlin": 885,
      "##ast": 886,
      "masuuliy": 887,
      "doonaan": 888,
      "##et": 889,
      "shirk": 890,
      "qaa": 891,
      "tur": 892,
      "yaal": 893,
      "##es": 894,
      "ark": 895,
      "baahan": 896,
      "mareykanka": 897,
      "##ista": 898,
      "##jir": 899,
      "##mar": 900,
      "jab": 901,
      "ayay": 902,
      "guddoomiyaha": 903,
      "##atay": 904,
      "dhinaca": 905,
      "raiisul": 906,
      "dii": 907,
      "dhax": 908,
      "cel": 909,
      "##mudug": 910,
      "galmudug": 911,
      "kula": 912,
      "##uhu": 913,
      "maxka": 914,
      "inaan": 915,
      "joo": 916,
      "xidh": 917,
      "##io": 918,
      "tilmaam": 919,
      "eed": 920,
      "isl": 921,
      "##ak": 922,
      "isagoo": 923,
      "muddo": 924,
      "yeel": 925,
      "cul": 926,
      "sano": 927,
      "kuwaas": 928,
      "dawladda": 929,
      "##iikh": 930,
      "##aayeen": 931,
      "##tu": 932,
      "hoose": 933,
      "hogg": 934,
      "wararka": 935,
      "waxy": 936,
      "koon": 937,
      "su": 938,
      "jub": 939,
      "##ber": 940,
      "ilaal": 941,
      "dilay": 942,
      "qaran": 943,
      "##naan": 944,
      "arag": 945,
      "##uunka": 946,
      "dhaaf": 947,
      "hoos": 948,
      "soomaalida": 949,
      "fal": 950,
      "##daan": 951,
      "##em": 952,
      "qur": 953,
      "hir": 954,
      "##nay": 955,
      "##aaday": 956,
      "hawl": 957,
      "wareeg": 958,
      "##ixii": 959,
      "maxamuud": 960,
      "##inka": 961,
      "##ys": 962,
      "xan": 963,
      "##dha": 964,
      "xal": 965,
      "##tic": 966,
      "da": 967,
      "dhexe": 968,
      "hargeysa": 969,
      "shirka": 970,
      "horumar": 971,
      "qorsh": 972,
      "kooxda": 973,
      "xisbiga": 974,
      "caasimada": 975,
      "warbix": 976,
      "nol": 977,
      "xubn": 978,
      "online": 979,
      "saraakii": 980,
      "xafiiska": 981,
      "aanu": 982,
      "##laahi": 983,
      "com": 984,
      "caasim": 985,
      "ag": 986,
      "ful": 987,
      "waxayna": 988,
      "bish": 989,
      "##ayaasha": 990,
      "dagaalka": 991,
      "##ik": 992,
      "qaban": 993,
      "wasaaraha": 994,
      "wanaagsan": 995,
      "jaam": 996,
      "koonfur": 997,
      "cabdul": 998,
      "cumar": 999,
      "galb": 1000,
      "##aabsan": 1001,
      "xuku": 1002,
      "sann": 1003,
      "##uuc": 1004,
      "##addu": 1005,
      "wixii": 1006,
      "##bal": 1007,
      "turk": 1008,
      "saam": 1009,
      "sugan": 1010,
      "xigeenka": 1011,
      "##tooy": 1012,
      "dhim": 1013,
      "add": 1014,
      "muuse": 1015,
      "qabtay": 1016,
      "mahad": 1017,
      "qodob": 1018,
      "##agu": 1019,
      "##aysay": 1020,
      "sadd": 1021,
      "eeg": 1022,
      "jaamac": 1023,
      "waxbar": 1024,
      "warbaah": 1025,
      "saabsan": 1026,
      "hada": 1027,
      "islaam": 1028,
      "soco": 1029,
      "sheegeen": 1030,
      "taar": 1031,
      "mush": 1032,
      "##nimo": 1033,
      "##ina": 1034,
      "saddex": 1035,
      "##eystay": 1036,
      "caalamka": 1037,
      "##amada": 1038,
      "dowlada": 1039,
      "dhashay": 1040,
      "xeer": 1041,
      "dhammaan": 1042,
      "dhigay": 1043,
      "xab": 1044,
      "barn": 1045,
      "guddiga": 1046,
      "fadh": 1047,
      "##uurka": 1048,
      "iyada": 1049,
      "noqo": 1050,
      "##andh": 1051,
      "jiraan": 1052,
      "raac": 1053,
      "ber": 1054,
      "qoraal": 1055,
      "##aaraha": 1056,
      "##gag": 1057,
      "##aynta": 1058,
      "dul": 1059,
      "##inayo": 1060,
      "way": 1061,
      "kusoo": 1062,
      "##owga": 1063,
      "##uub": 1064,
      "danb": 1065,
      "##aamij": 1066,
      "ada": 1067,
      "isugu": 1068,
      "kac": 1069,
      "wuxuuna": 1070,
      "saaray": 1071,
      "goaan": 1072,
      "##igu": 1073,
      "jamh": 1074,
      "kaas": 1075,
      "awood": 1076,
      "cadd": 1077,
      "##aadh": 1078,
      "##tar": 1079,
      "##aba": 1080,
      "##yeen": 1081,
      "walba": 1082,
      "xilka": 1083,
      "##tada": 1084,
      "ahayn": 1085,
      "wadan": 1086,
      "dhaqan": 1087,
      "daawo": 1088,
      "gaaray": 1089,
      "##ala": 1090,
      "taariikh": 1091,
      "dhalin": 1092,
      "barnaamij": 1093,
      "jamhuur": 1094,
      "##eeyaan": 1095,
      "doonaa": 1096,
      "##aqaan": 1097,
      "geer": 1098,
      "cun": 1099,
      "caaw": 1100,
      "##ilaaf": 1101,
      "shalay": 1102,
      "dast": 1103,
      "gudoomiy": 1104,
      "maad": 1105,
      "cas": 1106,
      "bed": 1107,
      "warbaahinta": 1108,
      "booliska": 1109,
      "##iif": 1110,
      "aanay": 1111,
      "heer": 1112,
      "xoo": 1113,
      "##th": 1114,
      "##ani": 1115,
      "##oow": 1116,
      "##nada": 1117,
      "##aysan": 1118,
      "adag": 1119,
      "suur": 1120,
      "gaadh": 1121,
      "laa": 1122,
      "##adiisa": 1123,
      "##yey": 1124,
      "##aysaa": 1125,
      "khilaaf": 1126,
      "qofka": 1127,
      "halkaas": 1128,
      "hoggaam": 1129,
      "dhibaat": 1130,
      "cabdir": 1131,
      "qoys": 1132,
      "boo": 1133,
      "sannad": 1134,
      "##aama": 1135,
      "dhowr": 1136,
      "akh": 1137,
      "aam": 1138,
      "qaadan": 1139,
      "istic": 1140,
      "nab": 1141,
      "weli": 1142,
      "##tiga": 1143,
      "##bo": 1144,
      "jiro": 1145,
      "##waad": 1146,
      "cal": 1147,
      "rag": 1148,
      "##ayey": 1149,
      "buu": 1150,
      "midoob": 1151,
      "wiil": 1152,
      "tod": 1153,
      "##eeyeen": 1154,
      "##yan": 1155,
      "bandh": 1156,
      "taagan": 1157,
      "jar": 1158,
      "##eedahay": 1159,
      "beel": 1160,
      "qaatay": 1161,
      "##axmaan": 1162,
      "sac": 1163,
      "##ra": 1164,
      "##keeda": 1165,
      "aas": 1166,
      "warar": 1167,
      "horr": 1168,
      "leedahay": 1169,
      "maraykanka": 1170,
      "isk": 1171,
      "day": 1172,
      "##lan": 1173,
      "##nimada": 1174,
      "##tooyada": 1175,
      "karin": 1176,
      "gacanta": 1177,
      "khas": 1178,
      "sidaas": 1179,
      "faah": 1180,
      "##iba": 1181,
      "mash": 1182,
      "dhamaan": 1183,
      "gacan": 1184,
      "##ot": 1185,
      "doona": 1186,
      "bandhig": 1187,
      "shaqo": 1188,
      "dalalka": 1189,
      "kordh": 1190,
      "nooc": 1191,
      "##iyad": 1192,
      "beesha": 1193,
      "biix": 1194,
      "faa": 1195,
      "waxaanu": 1196,
      "waxaad": 1197,
      "dhalinyar": 1198,
      "guur": 1199,
      "##so": 1200,
      "jirto": 1201,
      "turkiga": 1202,
      "dadkii": 1203,
      "##maanka": 1204,
      "siyaasadeed": 1205,
      "hayadda": 1206,
      "banaadir": 1207,
      "waana": 1208,
      "isticmaal": 1209,
      "##idda": 1210,
      "shaac": 1211,
      "wakii": 1212,
      "tilmaamay": 1213,
      "dhawaan": 1214,
      "carab": 1215,
      "cud": 1216,
      "biixi": 1217,
      "laab": 1218,
      "##lim": 1219,
      "xuseen": 1220,
      "socday": 1221,
      "##aj": 1222,
      "waayo": 1223,
      "kuwo": 1224,
      "##tiisa": 1225,
      "##gaar": 1226,
      "yimid": 1227,
      "##ew": 1228,
      "maalm": 1229,
      "10": 1230,
      "##shab": 1231,
      "##ef": 1232,
      "##addii": 1233,
      "galbeed": 1234,
      "##aynaa": 1235,
      "ilaah": 1236,
      "##idka": 1237,
      "islam": 1238,
      "halkan": 1239,
      "xildhibaanada": 1240,
      "ciidan": 1241,
      "labaad": 1242,
      "tabab": 1243,
      "abuur": 1244,
      "ill": 1245,
      "dhawaaq": 1246,
      "goboleed": 1247,
      "socd": 1248,
      "naf": 1249,
      "hogaam": 1250,
      "##jeed": 1251,
      "fiic": 1252,
      "##bad": 1253,
      "kooban": 1254,
      "##jiyay": 1255,
      "mushar": 1256,
      "jirin": 1257,
      "bog": 1258,
      "afar": 1259,
      "##eex": 1260,
      "muc": 1261,
      "jec": 1262,
      "##keen": 1263,
      "nolo": 1264,
      "ammaanka": 1265,
      "tall": 1266,
      "##waan": 1267,
      "xor": 1268,
      "waf": 1269,
      "soomaali": 1270,
      "leeyihiin": 1271,
      "##tid": 1272,
      "caafimaadka": 1273,
      "##iiraan": 1274,
      "booq": 1275,
      "boqor": 1276,
      "ururka": 1277,
      "aynu": 1278,
      "kan": 1279,
      "##iyiinta": 1280,
      "iyaga": 1281,
      "hadd": 1282,
      "jamhuuriyadda": 1283,
      "wasaare": 1284,
      "dun": 1285,
      "dhaqaalaha": 1286,
      "##adood": 1287,
      "xalay": 1288,
      "maxaa": 1289,
      "xum": 1290,
      "##amar": 1291,
      "warbixin": 1292,
      "roob": 1293,
      "##rada": 1294,
      "xiis": 1295,
      "beeg": 1296,
      "doorashooyinka": 1297,
      "yeesh": 1298,
      "##iiq": 1299,
      "cudur": 1300,
      "taliyaha": 1301,
      "inaad": 1302,
      "qaramada": 1303,
      "##dhig": 1304,
      "xubnaha": 1305,
      "dhab": 1306,
      "um": 1307,
      "taal": 1308,
      "dhulka": 1309,
      "noqday": 1310,
      "duq": 1311,
      "ciidamo": 1312,
      "##itaan": 1313,
      "taasi": 1314,
      "dig": 1315,
      "lahayn": 1316,
      "waj": 1317,
      "hays": 1318,
      "islamar": 1319,
      "gees": 1320,
      "##taas": 1321,
      "dhacday": 1322,
      "aqalka": 1323,
      "mark": 1324,
      "##aaga": 1325,
      "sameeyay": 1326,
      "helay": 1327,
      "saac": 1328,
      "##soon": 1329,
      "duul": 1330,
      "maadaama": 1331,
      "kur": 1332,
      "tim": 1333,
      "akhr": 1334,
      "cir": 1335,
      "kaal": 1336,
      "##isom": 1337,
      "##yahay": 1338,
      "shaqaalaha": 1339,
      "##bur": 1340,
      "yaqaan": 1341,
      "##ter": 1342,
      "##iisu": 1343,
      "muuqaal": 1344,
      "jawaab": 1345,
      "agaas": 1346,
      "ula": 1347,
      "markaas": 1348,
      "bishii": 1349,
      "kulanka": 1350,
      "amisom": 1351,
      "buux": 1352,
      "garoonka": 1353,
      "##itaanka": 1354,
      "siin": 1355,
      "intii": 1356,
      "##ran": 1357,
      "midowga": 1358,
      "##aatan": 1359,
      "##laha": 1360,
      "sanadkii": 1361,
      "nax": 1362,
      "col": 1363,
      "dhaafay": 1364,
      "##li": 1365,
      "##adooda": 1366,
      "tac": 1367,
      "##yaan": 1368,
      "##ayeen": 1369,
      "##adaas": 1370,
      "##20": 1371,
      "halkaasi": 1372,
      "dood": 1373,
      "##umarka": 1374,
      "siyaasadda": 1375,
      "th": 1376,
      "imaar": 1377,
      "##sam": 1378,
      "raad": 1379,
      "dastuurka": 1380,
      "iib": 1381,
      "##tida": 1382,
      "##man": 1383,
      "xaaf": 1384,
      "iyagoo": 1385,
      "magacaabay": 1386,
      "dhintay": 1387,
      "meesha": 1388,
      "daray": 1389,
      "doonto": 1390,
      "labo": 1391,
      "caasimadda": 1392,
      "##weyne": 1393,
      "yur": 1394,
      "##iidh": 1395,
      "##oona": 1396,
      "uusan": 1397,
      "saax": 1398,
      "maar": 1399,
      "xaaj": 1400,
      "##co": 1401,
      "baaqay": 1402,
      "bilaab": 1403,
      "##ism": 1404,
      "dac": 1405,
      "jirta": 1406,
      "yurub": 1407,
      "##wayn": 1408,
      "ing": 1409,
      "muslim": 1410,
      "jubbal": 1411,
      "ayey": 1412,
      "dhic": 1413,
      "mun": 1414,
      "tr": 1415,
      "xul": 1416,
      "raj": 1417,
      "##uurta": 1418,
      "##ing": 1419,
      "sababta": 1420,
      "##tee": 1421,
      "##isa": 1422,
      "hadii": 1423,
      "fiican": 1424,
      "jubbaland": 1425,
      "kaliya": 1426,
      "hiiraan": 1427,
      "ib": 1428,
      "kalena": 1429,
      "alle": 1430,
      "has": 1431,
      "dr": 1432,
      "##eeye": 1433,
      "##shaha": 1434,
      "##kaal": 1435,
      "ruux": 1436,
      "dhismaha": 1437,
      "sheegaya": 1438,
      "geeriy": 1439,
      "kel": 1440,
      "caafimaad": 1441,
      "lasoo": 1442,
      "xad": 1443,
      "dibadda": 1444,
      "baa": 1445,
      "shaqada": 1446,
      "howlgal": 1447,
      "dambe": 1448,
      "##atar": 1449,
      "madaxtooyada": 1450,
      "shabeel": 1451,
      "xukun": 1452,
      "cilm": 1453,
      "dhaqanka": 1454,
      "xag": 1455,
      "tus": 1456,
      "##ban": 1457,
      "gaadiid": 1458,
      "dif": 1459,
      "##igan": 1460,
      "khey": 1461,
      "cay": 1462,
      "dadaal": 1463,
      "boqol": 1464,
      "qaada": 1465,
      "arday": 1466,
      "##har": 1467,
      "waxbarashada": 1468,
      "karaan": 1469,
      "beer": 1470,
      "midoobay": 1471,
      "cabdullaahi": 1472,
      "islamarkaana": 1473,
      "nid": 1474,
      "jan": 1475,
      "##dan": 1476,
      "##adaasi": 1477,
      "mucaar": 1478,
      "burbur": 1479,
      "##aato": 1480,
      "saxaaf": 1481,
      "lahaayeen": 1482,
      "sharci": 1483,
      "##uuti": 1484,
      "difaac": 1485,
      "ayna": 1486,
      "##uush": 1487,
      "marx": 1488,
      "##jib": 1489,
      "##iirka": 1490,
      "lala": 1491,
      "nidaam": 1492,
      "shacab": 1493,
      "khal": 1494,
      "qiim": 1495,
      "daah": 1496,
      "yaab": 1497,
      "bixin": 1498,
      "dug": 1499,
      "##sado": 1500,
      "##laan": 1501,
      "been": 1502,
      "waqooy": 1503,
      "yuus": 1504,
      "tababar": 1505,
      "suuq": 1506,
      "maxkamadda": 1507,
      "wakh": 1508,
      "##ata": 1509,
      "##aka": 1510,
      "qaat": 1511,
      "sidaa": 1512,
      "oday": 1513,
      "mag": 1514,
      "dhaqaale": 1515,
      "##aare": 1516,
      "dunida": 1517,
      "yuusuf": 1518,
      "##iig": 1519,
      "adk": 1520,
      "##una": 1521,
      "inka": 1522,
      "dhamm": 1523,
      "carr": 1524,
      "yee": 1525,
      "dek": 1526,
      "waxyaab": 1527,
      "kism": 1528,
      "ingir": 1529,
      "saraakiisha": 1530,
      "200": 1531,
      "##cyo": 1532,
      "##ato": 1533,
      "waree": 1534,
      "jabuuti": 1535,
      "ol": 1536,
      "sharciga": 1537,
      "##teed": 1538,
      "dambeeyay": 1539,
      "xaaladda": 1540,
      "##tey": 1541,
      "goboleedyada": 1542,
      "idaac": 1543,
      "guddoomiye": 1544,
      "masuuliyiin": 1545,
      "##tooda": 1546,
      "##isha": 1547,
      "xid": 1548,
      "macal": 1549,
      "kismaayo": 1550,
      "gudoomiyaha": 1551,
      "qaarkood": 1552,
      "xuq": 1553,
      "##ooday": 1554,
      "argag": 1555,
      "##gar": 1556,
      "dee": 1557,
      "kara": 1558,
      "iney": 1559,
      "qaabil": 1560,
      "##han": 1561,
      "aamin": 1562,
      "##miye": 1563,
      "##cel": 1564,
      "qax": 1565,
      "diray": 1566,
      "caq": 1567,
      "##uudiga": 1568,
      "badb": 1569,
      "##min": 1570,
      "caad": 1571,
      "xilli": 1572,
      "qaado": 1573,
      "kama": 1574,
      "gabad": 1575,
      "ii": 1576,
      "waxba": 1577,
      "##edda": 1578,
      "##ca": 1579,
      "##yahan": 1580,
      "15": 1581,
      "shan": 1582,
      "xool": 1583,
      "habeen": 1584,
      "xun": 1585,
      "gaalka": 1586,
      "karaa": 1587,
      "berber": 1588,
      "xubno": 1589,
      "munaas": 1590,
      "xuquuq": 1591,
      "##taag": 1592,
      "diid": 1593,
      "##anaya": 1594,
      "badda": 1595,
      "dam": 1596,
      "##ch": 1597,
      "imaan": 1598,
      "dhageyso": 1599,
      "ism": 1600,
      "##obi": 1601,
      "diyaaradaha": 1602,
      "##inaya": 1603,
      "intaas": 1604,
      "horay": 1605,
      "kadd": 1606,
      "##os": 1607,
      "##iq": 1608,
      "2018": 1609,
      "culus": 1610,
      "##gii": 1611,
      "caalamiga": 1612,
      "ray": 1613,
      "kulmiye": 1614,
      "fog": 1615,
      "kuu": 1616,
      "kaddib": 1617,
      "wasiirada": 1618,
      "cabdiraxmaan": 1619,
      "can": 1620,
      "goor": 1621,
      "xiriirka": 1622,
      "askar": 1623,
      "trum": 1624,
      "xaaji": 1625,
      "ahaayeen": 1626,
      "##te": 1627,
      "gaarka": 1628,
      "xoogga": 1629,
      "nair": 1630,
      "lahay": 1631,
      "sheek": 1632,
      "wey": 1633,
      "haatan": 1634,
      "caan": 1635,
      "rad": 1636,
      "goobta": 1637,
      "all": 1638,
      "kun": 1639,
      "xer": 1640,
      "horta": 1641,
      "##ayl": 1642,
      "##aystay": 1643,
      "eth": 1644,
      "nuur": 1645,
      "000": 1646,
      "yaalla": 1647,
      "saa": 1648,
      "##jinta": 1649,
      "##weynaha": 1650,
      "haween": 1651,
      "sameeyo": 1652,
      "nairobi": 1653,
      "gaari": 1654,
      "wakiil": 1655,
      "ganacsiga": 1656,
      "##kay": 1657,
      "##dar": 1658,
      "##adaan": 1659,
      "qabto": 1660,
      "adduunka": 1661,
      "##deen": 1662,
      "ahi": 1663,
      "heli": 1664,
      "##go": 1665,
      "lama": 1666,
      "horumarinta": 1667,
      "##aarka": 1668,
      "##asha": 1669,
      "##jiyo": 1670,
      "re": 1671,
      "##bi": 1672,
      "gaalkacyo": 1673,
      "##ayaal": 1674,
      "hayadaha": 1675,
      "arin": 1676,
      "islaamka": 1677,
      "dalkaasi": 1678,
      "run": 1679,
      "xidhiidh": 1680,
      "idin": 1681,
      "##bax": 1682,
      "##aadaan": 1683,
      "##tin": 1684,
      "shaqeyn": 1685,
      "masuuliyiinta": 1686,
      "##had": 1687,
      "toos": 1688,
      "fud": 1689,
      "wayn": 1690,
      "magacaab": 1691,
      "##aydha": 1692,
      "##aalo": 1693,
      "dacw": 1694,
      "##cad": 1695,
      "deeq": 1696,
      "helo": 1697,
      "of": 1698,
      "bay": 1699,
      "wac": 1700,
      "cr": 1701,
      "##kari": 1702,
      "daw": 1703,
      "wuu": 1704,
      "##ariis": 1705,
      "##be": 1706,
      "khay": 1707,
      "11": 1708,
      "ibr": 1709,
      "diinta": 1710,
      "may": 1711,
      "imaaraadka": 1712,
      "sir": 1713,
      "muujin": 1714,
      "goboleedka": 1715,
      "##kiis": 1716,
      "ethio": 1717,
      "xud": 1718,
      "askari": 1719,
      "illaa": 1720,
      "laaan": 1721,
      "wadanka": 1722,
      "bin": 1723,
      "mudan": 1724,
      "gash": 1725,
      "12": 1726,
      "cis": 1727,
      "boos": 1728,
      "qas": 1729,
      "musharax": 1730,
      "ans": 1731,
      "baydha": 1732,
      "xay": 1733,
      "teg": 1734,
      "mux": 1735,
      "##ember": 1736,
      "dheg": 1737,
      "hadalka": 1738,
      "##stoo": 1739,
      "xusay": 1740,
      "wadaag": 1741,
      "##taasi": 1742,
      "lix": 1743,
      "gaas": 1744,
      "dag": 1745,
      "en": 1746,
      "saaxiib": 1747,
      "man": 1748,
      "rasmi": 1749,
      "lahayd": 1750,
      "saxiix": 1751,
      "naxariis": 1752,
      "bedel": 1753,
      "kheyre": 1754,
      "gelin": 1755,
      "shirkadda": 1756,
      "safar": 1757,
      "shariif": 1758,
      "dagaalam": 1759,
      "fik": 1760,
      "wali": 1761,
      "saldhig": 1762,
      "tirada": 1763,
      "ganacsa": 1764,
      "##ews": 1765,
      "tagay": 1766,
      "baab": 1767,
      "carabta": 1768,
      "sameyn": 1769,
      "##aaso": 1770,
      "##eysaa": 1771,
      "ahna": 1772,
      "mida": 1773,
      "ilaahay": 1774,
      "haddana": 1775,
      "kartaa": 1776,
      "socon": 1777,
      "##ent": 1778,
      "##eelle": 1779,
      "gobalka": 1780,
      "sab": 1781,
      "madaxa": 1782,
      "waajib": 1783,
      "yeelan": 1784,
      "radio": 1785,
      "waxyaabaha": 1786,
      "kuwaasi": 1787,
      "haweenka": 1788,
      "fudud": 1789,
      "dawlad": 1790,
      "rid": 1791,
      "usoo": 1792,
      "##hel": 1793,
      "##tion": 1794,
      "jireen": 1795,
      "co": 1796,
      "ciidam": 1797,
      "14": 1798,
      "uuna": 1799,
      "df": 1800,
      "##tiij": 1801,
      "##iyiin": 1802,
      "maan": 1803,
      "nas": 1804,
      "ujeed": 1805,
      "##nim": 1806,
      "iskaash": 1807,
      "##aadeen": 1808,
      "miis": 1809,
      "magacaabo": 1810,
      "qoraalka": 1811,
      "##eef": 1812,
      "##tig": 1813,
      "no": 1814,
      "biyo": 1815,
      "bari": 1816,
      "kulmay": 1817,
      "##aadda": 1818,
      "##eec": 1819,
      "dhaca": 1820,
      "doortay": 1821,
      "maalinta": 1822,
      "##uumada": 1823,
      "qarx": 1824,
      "faar": 1825,
      "jirtay": 1826,
      "todob": 1827,
      "ethioia": 1828,
      "##ki": 1829,
      "yeeshay": 1830,
      "##del": 1831,
      "##sadeen": 1832,
      "hirshab": 1833,
      "noqdo": 1834,
      "##aayay": 1835,
      "xafiis": 1836,
      "afhay": 1837,
      "kuna": 1838,
      "dhallin": 1839,
      "musta": 1840,
      "muwaad": 1841,
      "waal": 1842,
      "ogol": 1843,
      "intaa": 1844,
      "xiran": 1845,
      "the": 1846,
      "biyaha": 1847,
      "waaweyn": 1848,
      "kalsoon": 1849,
      "geeska": 1850,
      "##inayaa": 1851,
      "##adar": 1852,
      "##eedu": 1853,
      "18": 1854,
      "##ind": 1855,
      "ganacsi": 1856,
      "milyan": 1857,
      "hooy": 1858,
      "##meen": 1859,
      "taasoo": 1860,
      "uk": 1861,
      "madaxwayn": 1862,
      "##ama": 1863,
      "dhacd": 1864,
      "amar": 1865,
      "karto": 1866,
      "darteed": 1867,
      "ruush": 1868,
      "nolosha": 1869,
      "tel": 1870,
      "noqotay": 1871,
      "daac": 1872,
      "soomal": 1873,
      "sameeyey": 1874,
      "qoray": 1875,
      "ansix": 1876,
      "kana": 1877,
      "berbera": 1878,
      "##yihiin": 1879,
      "banaan": 1880,
      "sannadkii": 1881,
      "waliba": 1882,
      "##kana": 1883,
      "30": 1884,
      "masar": 1885,
      "##iyaa": 1886,
      "mr": 1887,
      "baydhabo": 1888,
      "##ce": 1889,
      "km": 1890,
      "guddi": 1891,
      "degm": 1892,
      "sw": 1893,
      "##du": 1894,
      "siiyo": 1895,
      "##galka": 1896,
      "##ni": 1897,
      "##soor": 1898,
      "xukuumada": 1899,
      "##mail": 1900,
      "##alada": 1901,
      "gobolada": 1902,
      "##addan": 1903,
      "diir": 1904,
      "##adana": 1905,
      "maleesh": 1906,
      "xanuun": 1907,
      "dambeyn": 1908,
      "qiy": 1909,
      "##jiyey": 1910,
      "jooga": 1911,
      "##don": 1912,
      "dhallinyar": 1913,
      "##aaran": 1914,
      "xiray": 1915,
      "saraakiil": 1916,
      "guda": 1917,
      "diiday": 1918,
      "tiro": 1919,
      "tob": 1920,
      "baxday": 1921,
      "hase": 1922,
      "hag": 1923,
      "degaan": 1924,
      "bisha": 1925,
      "bilow": 1926,
      "gaadiidka": 1927,
      "##wax": 1928,
      "qaxoo": 1929,
      "xeeb": 1930,
      "agaasimaha": 1931,
      "ibraah": 1932,
      "qan": 1933,
      "baan": 1934,
      "diin": 1935,
      "khud": 1936,
      "sic": 1937,
      "warq": 1938,
      "aab": 1939,
      "dheeraad": 1940,
      "##lay": 1941,
      "socod": 1942,
      "dhiir": 1943,
      "inoo": 1944,
      "isbit": 1945,
      "arkay": 1946,
      "##oowe": 1947,
      "samayn": 1948,
      "garab": 1949,
      "##oosh": 1950,
      "farx": 1951,
      "horumarka": 1952,
      "dhiib": 1953,
      "iyagu": 1954,
      "##xda": 1955,
      "jeediyay": 1956,
      "xisaab": 1957,
      "ceel": 1958,
      "qaadeen": 1959,
      "##luum": 1960,
      "koowaad": 1961,
      "argagix": 1962,
      "##iisii": 1963,
      "##joog": 1964,
      "garan": 1965,
      "arimaha": 1966,
      "geystay": 1967,
      "se": 1968,
      "xigeen": 1969,
      "toddob": 1970,
      "geeriyooday": 1971,
      "##siy": 1972,
      "ingiriiska": 1973,
      "##iina": 1974,
      "cag": 1975,
      "walaal": 1976,
      "##bada": 1977,
      "qol": 1978,
      "aha": 1979,
      "##kani": 1980,
      "qorshaha": 1981,
      "degaanka": 1982,
      "or": 1983,
      "dadku": 1984,
      "ball": 1985,
      "aniga": 1986,
      "202": 1987,
      "marxuum": 1988,
      "faarax": 1989,
      "dhici": 1990,
      "fah": 1991,
      "sharaf": 1992,
      "##biga": 1993,
      "2017": 1994,
      "horey": 1995,
      "doorasho": 1996,
      "##tood": 1997,
      "inter": 1998,
      "sheegayaan": 1999,
      "##was": 2000,
      "biir": 2001,
      "##uug": 2002,
      "##ihiisa": 2003,
      "ninka": 2004,
      "cilmi": 2005,
      "weerarka": 2006,
      "##eynaa": 2007,
      "jim": 2008,
      "warf": 2009,
      "##igiisa": 2010,
      "badbaad": 2011,
      "jeer": 2012,
      "ba": 2013,
      "dur": 2014,
      "fas": 2015,
      "saartay": 2016,
      "tarta": 2017,
      "yaraan": 2018,
      "tallaab": 2019,
      "tu": 2020,
      "haddaba": 2021,
      "idaacadda": 2022,
      "kaloo": 2023,
      "keliya": 2024,
      "bulsh": 2025,
      "xoogan": 2026,
      "kooxaha": 2027,
      "somaliya": 2028,
      "##oobe": 2029,
      "hayo": 2030,
      "##satay": 2031,
      "olol": 2032,
      "##ton": 2033,
      "tab": 2034,
      "##aday": 2035,
      "##yadii": 2036,
      "buug": 2037,
      "##aatay": 2038,
      "13": 2039,
      "garoowe": 2040,
      "dilka": 2041,
      "lacagta": 2042,
      "istaag": 2043,
      "shid": 2044,
      "##diga": 2045,
      "shiin": 2046,
      "ro": 2047,
      "caw": 2048,
      "daree": 2049,
      "beelaha": 2050,
      "kol": 2051,
      "##aaha": 2052,
      "natiij": 2053,
      "afg": 2054,
      "baad": 2055,
      "taariikhda": 2056,
      "ho": 2057,
      "haya": 2058,
      "##aari": 2059,
      "cudurka": 2060,
      "laf": 2061,
      "wadahad": 2062,
      "kuma": 2063,
      "jeeda": 2064,
      "sacuudiga": 2065,
      "##aadkii": 2066,
      "xoghay": 2067,
      "kaa": 2068,
      "bill": 2069,
      "geed": 2070,
      "naga": 2071,
      "jac": 2072,
      "gurmad": 2073,
      "qabiil": 2074,
      "##ona": 2075,
      "xiriira": 2076,
      "dhexeeya": 2077,
      "gaash": 2078,
      "gargaar": 2079,
      "abaar": 2080,
      "##ooyinkii": 2081,
      "keenay": 2082,
      "##isada": 2083,
      "##aafinta": 2084,
      "hur": 2085,
      "galeen": 2086,
      "##iise": 2087,
      "##raad": 2088,
      "aheyd": 2089,
      "deegaanada": 2090,
      "2016": 2091,
      "baaritaan": 2092,
      "warg": 2093,
      "bilood": 2094,
      "bel": 2095,
      "goobaha": 2096,
      "musuq": 2097,
      "##gad": 2098,
      "dhiig": 2099,
      "dhalinyarada": 2100,
      "aj": 2101,
      "mudd": 2102,
      "darro": 2103,
      "muwaadin": 2104,
      "weyd": 2105,
      "##tahay": 2106,
      "##yaal": 2107,
      "wasaarada": 2108,
      "mo": 2109,
      "gaab": 2110,
      "nahay": 2111,
      "##yaha": 2112,
      "gaadhay": 2113,
      "heshiiska": 2114,
      "talo": 2115,
      "caasimad": 2116,
      "qaraxa": 2117,
      "ruushka": 2118,
      "shaqayn": 2119,
      "mada": 2120,
      "maaliyadda": 2121,
      "##dheer": 2122,
      "##ray": 2123,
      "kulam": 2124,
      "sarkaal": 2125,
      "suuqa": 2126,
      "17": 2127,
      "##laanyo": 2128,
      "eedeeyay": 2129,
      "##idu": 2130,
      "isbed": 2131,
      "##ine": 2132,
      "rum": 2133,
      "##bc": 2134,
      "hind": 2135,
      "warka": 2136,
      "isagu": 2137,
      "barnaamijka": 2138,
      "diiwaan": 2139,
      "muj": 2140,
      "##sadaan": 2141,
      "xasil": 2142,
      "##aabka": 2143,
      "ismaac": 2144,
      "kaasi": 2145,
      "maalintii": 2146,
      "cismaan": 2147,
      "hayaan": 2148,
      "##lar": 2149,
      "sawirro": 2150,
      "inkastoo": 2151,
      "xaas": 2152,
      "arrintan": 2153,
      "med": 2154,
      "socota": 2155,
      "##uuf": 2156,
      "hot": 2157,
      "dawlada": 2158,
      "sool": 2159,
      "shil": 2160,
      "garsoor": 2161,
      "##deg": 2162,
      "siilaanyo": 2163,
      "ahaatee": 2164,
      "qaadi": 2165,
      "dhawaaqay": 2166,
      "##qab": 2167,
      "qalabka": 2168,
      "dim": 2169,
      "dareen": 2170,
      "##war": 2171,
      "afka": 2172,
      "##kaaga": 2173,
      "maalmood": 2174,
      "ged": 2175,
      "weydii": 2176,
      "khilaafka": 2177,
      "idiin": 2178,
      "shur": 2179,
      "xafl": 2180,
      "yeer": 2181,
      "maska": 2182,
      "doonin": 2183,
      "ballan": 2184,
      "ismaaciil": 2185,
      "##alie": 2186,
      "dhibaato": 2187,
      "aaminsan": 2188,
      "taab": 2189,
      "kastaba": 2190,
      "sul": 2191,
      "sub": 2192,
      "ta": 2193,
      "xaqiiq": 2194,
      "degan": 2195,
      "maxay": 2196,
      "duleedka": 2197,
      "waxana": 2198,
      "sun": 2199,
      "wer": 2200,
      "caasimadalie": 2201,
      "gashay": 2202,
      "rasaas": 2203,
      "bariga": 2204,
      "gabadh": 2205,
      "kab": 2206,
      "igu": 2207,
      "rooble": 2208,
      "wado": 2209,
      "cadaal": 2210,
      "gobollada": 2211,
      "xuquuqda": 2212,
      "dhexmar": 2213,
      "tusaale": 2214,
      "ibraahim": 2215,
      "##ruuc": 2216,
      "qaabilsan": 2217,
      "boosaaso": 2218,
      "dhawr": 2219,
      "dhagax": 2220,
      "dalkaas": 2221,
      "##ayaash": 2222,
      "cur": 2223,
      "mucaaradka": 2224,
      "wadajir": 2225,
      "erg": 2226,
      "dhinteen": 2227,
      "waqooyi": 2228,
      "warfaafinta": 2229,
      "##ataa": 2230,
      "daahir": 2231,
      "fid": 2232,
      "mudug": 2233,
      "amaanka": 2234,
      "qatar": 2235,
      "xabsiga": 2236,
      "qabo": 2237,
      "##eena": 2238,
      "##daa": 2239,
      "miisaan": 2240,
      "qud": 2241,
      "##faah": 2242,
      "mashruuc": 2243,
      "##aaya": 2244,
      "##yah": 2245,
      "qaabka": 2246,
      "##niin": 2247,
      "duc": 2248,
      "##ut": 2249,
      "qaybta": 2250,
      "##aynu": 2251,
      "geys": 2252,
      "##eyda": 2253,
      "magaalooyinka": 2254,
      "##ho": 2255,
      "25": 2256,
      "jaamacadda": 2257,
      "##ugu": 2258,
      "madoobe": 2259,
      "madaxweynuhu": 2260,
      "dhacdo": 2261,
      "bilaabay": 2262,
      "boor": 2263,
      "siiyay": 2264,
      "doonayo": 2265,
      "199": 2266,
      "##siyada": 2267,
      "hors": 2268,
      "keentay": 2269,
      "toban": 2270,
      "shirkii": 2271,
      "##tirsan": 2272,
      "min": 2273,
      "caawa": 2274,
      "##keena": 2275,
      "markaa": 2276,
      "reeb": 2277,
      "nidaamka": 2278,
      "afhayeenka": 2279,
      "dhaqaaq": 2280,
      "##oof": 2281,
      "jecel": 2282,
      "16": 2283,
      "fad": 2284,
      "faaf": 2285,
      "##aysal": 2286,
      "isna": 2287,
      "cabdil": 2288,
      "xaalada": 2289,
      "kuwii": 2290,
      "weh": 2291,
      "aanan": 2292,
      "katirsan": 2293,
      "##isul": 2294,
      "##yeel": 2295,
      "degmooyinka": 2296,
      "daad": 2297,
      "lug": 2298,
      "sawirka": 2299,
      "##meer": 2300,
      "dol": 2301,
      "cabsi": 2302,
      "xoghayaha": 2303,
      "alshab": 2304,
      "waqti": 2305,
      "ciise": 2306,
      "##riga": 2307,
      "furay": 2308,
      "##caan": 2309,
      "rog": 2310,
      "##siin": 2311,
      "##tanka": 2312,
      "socdo": 2313,
      "##eyaasha": 2314,
      "bbc": 2315,
      "eng": 2316,
      "wargeys": 2317,
      "ehel": 2318,
      "##teeda": 2319,
      "bixiyay": 2320,
      "xiga": 2321,
      "noqoto": 2322,
      "uun": 2323,
      "##ooni": 2324,
      "saaka": 2325,
      "dhaxeeya": 2326,
      "dibedda": 2327,
      "guriga": 2328,
      "##galay": 2329,
      "magaca": 2330,
      "##aahdo": 2331,
      "ammaan": 2332,
      "shiinaha": 2333,
      "hortag": 2334,
      "##gud": 2335,
      "kham": 2336,
      "buur": 2337,
      "moosh": 2338,
      "xarum": 2339,
      "fiir": 2340,
      "caruur": 2341,
      "saaro": 2342,
      "taageero": 2343,
      "iga": 2344,
      "mana": 2345,
      "dhakh": 2346,
      "xam": 2347,
      "ak": 2348,
      "iskaashiga": 2349,
      "##uba": 2350,
      "tash": 2351,
      "siciid": 2352,
      "helaan": 2353,
      "##ise": 2354,
      "hubka": 2355,
      "filayaa": 2356,
      "bannaan": 2357,
      "qaataan": 2358,
      "qiyaas": 2359,
      "##ans": 2360,
      "muslimiinta": 2361,
      "salaad": 2362,
      "saaran": 2363,
      "safaar": 2364,
      "isr": 2365,
      "yeeshee": 2366,
      "##kiisu": 2367,
      "galo": 2368,
      "mustaq": 2369,
      "kaasoo": 2370,
      "sah": 2371,
      "##lah": 2372,
      "fikir": 2373,
      "kuwaasoo": 2374,
      "dhuus": 2375,
      "aa": 2376,
      "arrim": 2377,
      "wadaan": 2378,
      "lagaga": 2379,
      "##ct": 2380,
      "md": 2381,
      "timid": 2382,
      "ganacsatada": 2383,
      "goaanka": 2384,
      "##ice": 2385,
      "##istan": 2386,
      "##igaas": 2387,
      "horseed": 2388,
      "faahfaah": 2389,
      "sugnaa": 2390,
      "arrimo": 2391,
      "sameeyeen": 2392,
      "##net": 2393,
      "24": 2394,
      "##ambaar": 2395,
      "bandhigay": 2396,
      "daba": 2397,
      "nolol": 2398,
      "safiirka": 2399,
      "##aahid": 2400,
      "dadweynaha": 2401,
      "laas": 2402,
      "fara": 2403,
      "somali": 2404,
      "##aasuq": 2405,
      "doontaa": 2406,
      "indha": 2407,
      "barta": 2408,
      "##wel": 2409,
      "talyaan": 2410,
      "faaiid": 2411,
      "web": 2412,
      "alshabaab": 2413,
      "qalab": 2414,
      "gaashaan": 2415,
      "nolosh": 2416,
      "lon": 2417,
      "nim": 2418,
      "##doonka": 2419,
      "lam": 2420,
      "gum": 2421,
      "hawada": 2422,
      "qorshe": 2423,
      "madaxweynihii": 2424,
      "doonta": 2425,
      "koonfurta": 2426,
      "dhigo": 2427,
      "##rax": 2428,
      "dhowaan": 2429,
      "media": 2430,
      "if": 2431,
      "galaan": 2432,
      "ummadda": 2433,
      "balan": 2434,
      "xoolaha": 2435,
      "hamb": 2436,
      "dool": 2437,
      "xaalad": 2438,
      "ilaalinta": 2439,
      "khatar": 2440,
      "tuul": 2441,
      "bo": 2442,
      "##aaro": 2443,
      "tah": 2444,
      "muuj": 2445,
      "fash": 2446,
      "##ayno": 2447,
      "wafdi": 2448,
      "dhibaatada": 2449,
      "ug": 2450,
      "meelaha": 2451,
      "##too": 2452,
      "##siinta": 2453,
      "waddani": 2454,
      "howlaha": 2455,
      "hirgel": 2456,
      "isag": 2457,
      "mujaahid": 2458,
      "horj": 2459,
      "and": 2460,
      "baraka": 2461,
      "dambeeyey": 2462,
      "##aska": 2463,
      "guu": 2464,
      "qabsoo": 2465,
      "beddel": 2466,
      "jaal": 2467,
      "xaqiijiyay": 2468,
      "haysa": 2469,
      "kormeer": 2470,
      "##ary": 2471,
      "##naayeen": 2472,
      "##gash": 2473,
      "dagaalkii": 2474,
      "yem": 2475,
      "##aak": 2476,
      "lag": 2477,
      "##eeyn": 2478,
      "dhaweeyay": 2479,
      "kadibna": 2480,
      "farax": 2481,
      "##aawo": 2482,
      "ga": 2483,
      "weliba": 2484,
      "london": 2485,
      "ninkii": 2486,
      "una": 2487,
      "ost": 2488,
      "mahadcel": 2489,
      "waaf": 2490,
      "nabadda": 2491,
      "dhisan": 2492,
      "qurux": 2493,
      "tay": 2494,
      "bu": 2495,
      "daljir": 2496,
      "karta": 2497,
      "xooggan": 2498,
      "##dhan": 2499,
      "wareys": 2500,
      "xamar": 2501,
      "laam": 2502,
      "aay": 2503,
      "bah": 2504,
      "ina": 2505,
      "maxkamad": 2506,
      "kuur": 2507,
      "##sada": 2508,
      "net": 2509,
      "hambal": 2510,
      "booliiska": 2511,
      "##dho": 2512,
      "yaala": 2513,
      "21": 2514,
      "##inayaan": 2515,
      "abaal": 2516,
      "##dhex": 2517,
      "##qaad": 2518,
      "raiisal": 2519,
      "hees": 2520,
      "xildhibaano": 2521,
      "hirshabeelle": 2522,
      "noqdaan": 2523,
      "wadamada": 2524,
      "carruur": 2525,
      "xit": 2526,
      "##ashiid": 2527,
      "sidan": 2528,
      "##aali": 2529,
      "##ek": 2530,
      "jo": 2531,
      "dhexd": 2532,
      "degdeg": 2533,
      "ardayda": 2534,
      "anigu": 2535,
      "khayre": 2536,
      "iman": 2537,
      "der": 2538,
      "qeybta": 2539,
      "difaaca": 2540,
      "gedo": 2541,
      "ciidamad": 2542,
      "mudo": 2543,
      "##ram": 2544,
      "dhimasho": 2545,
      "god": 2546,
      "weerarkii": 2547,
      "100": 2548,
      "internet": 2549,
      "odayaasha": 2550,
      "sc": 2551,
      "baadh": 2552,
      "danjir": 2553,
      "tax": 2554,
      "##aabul": 2555,
      "qaxootiga": 2556,
      "uma": 2557,
      "lay": 2558,
      "2020": 2559,
      "dhinacyada": 2560,
      "cagta": 2561,
      "sanadkan": 2562,
      "##isan": 2563,
      "##antahay": 2564,
      "gen": 2565,
      "jow": 2566,
      "##sal": 2567,
      "gool": 2568,
      "waayay": 2569,
      "tuur": 2570,
      "coid": 2571,
      "dowladaha": 2572,
      "##aashi": 2573,
      "##nayd": 2574,
      "##gala": 2575,
      "gaarsii": 2576,
      "macluum": 2577,
      "horjeed": 2578,
      "shish": 2579,
      "dhuf": 2580,
      "kulamo": 2581,
      "munaasab": 2582,
      "jowhar": 2583,
      "intaasi": 2584,
      "barre": 2585,
      "joogaan": 2586,
      "farans": 2587,
      "##inayay": 2588,
      "##uulka": 2589,
      "suc": 2590,
      "halis": 2591,
      "dhalinyaro": 2592,
      "dhuusamar": 2593,
      "dollar": 2594,
      "cl": 2595,
      "##xa": 2596,
      "tirsanaa": 2597,
      "jimc": 2598,
      "##eyga": 2599,
      "kugu": 2600,
      "##tal": 2601,
      "wareegay": 2602,
      "swed": 2603,
      "kmg": 2604,
      "israa": 2605,
      "##keed": 2606,
      "waram": 2607,
      "##ino": 2608,
      "wadada": 2609,
      "##ahooda": 2610,
      "##hur": 2611,
      "telef": 2612,
      "sad": 2613,
      "maxkamada": 2614,
      "cor": 2615,
      "waxyeel": 2616,
      "baxa": 2617,
      "bixi": 2618,
      "xitaa": 2619,
      "##boon": 2620,
      "heshii": 2621,
      "siiyey": 2622,
      "daran": 2623,
      "abuu": 2624,
      "gub": 2625,
      "##oom": 2626,
      "barakac": 2627,
      "##miga": 2628,
      "xubin": 2629,
      "duub": 2630,
      "wadda": 2631,
      "yemen": 2632,
      "maaha": 2633,
      "marti": 2634,
      "##geed": 2635,
      "walaac": 2636,
      "craxmaan": 2637,
      "dumarka": 2638,
      "##jar": 2639,
      "ciyaaraha": 2640,
      "##eri": 2641,
      "##dhaq": 2642,
      "mam": 2643,
      "imt": 2644,
      "maleeshiy": 2645,
      "jeediyey": 2646,
      "dalal": 2647,
      "markuu": 2648,
      "##hood": 2649,
      "shaqeeyaan": 2650,
      "dhuusamareeb": 2651,
      "jecl": 2652,
      "daro": 2653,
      "dhoof": 2654,
      "galbeedka": 2655,
      "dileen": 2656,
      "dalsan": 2657,
      "fursad": 2658,
      "daq": 2659,
      "lib": 2660,
      "##qaadir": 2661,
      "warsh": 2662,
      "cam": 2663,
      "cash": 2664,
      "tii": 2665,
      "baxaya": 2666,
      "socodka": 2667,
      "##ahaas": 2668,
      "fan": 2669,
      "##doon": 2670,
      "waddan": 2671,
      "xisbiyada": 2672,
      "##nayn": 2673,
      "waddanka": 2674,
      "shaqeeya": 2675,
      "agaasim": 2676,
      "hey": 2677,
      "50": 2678,
      "ababa": 2679,
      "qoran": 2680,
      "##iyeyaasha": 2681,
      "27": 2682,
      "ahl": 2683,
      "siyaasada": 2684,
      "dhism": 2685,
      "qaba": 2686,
      "##badda": 2687,
      "kaash": 2688,
      "hubeysan": 2689,
      "halkaan": 2690,
      "##iish": 2691,
      "gaartay": 2692,
      "maqan": 2693,
      "sarr": 2694,
      "siyaasiyiinta": 2695,
      "daa": 2696,
      "dhaceen": 2697,
      "tago": 2698,
      "##ted": 2699,
      "jawaari": 2700,
      "##naga": 2701,
      "gaaro": 2702,
      "##maya": 2703,
      "ch": 2704,
      "bishan": 2705,
      "ugan": 2706,
      "socdaan": 2707,
      "garow": 2708,
      "con": 2709,
      "sa": 2710,
      "waxan": 2711,
      "magaalo": 2712,
      "xayir": 2713,
      "beled": 2714,
      "##oobay": 2715,
      "wef": 2716,
      "dibad": 2717,
      "aasaas": 2718,
      "fir": 2719,
      "wadahadal": 2720,
      "dem": 2721,
      "hadalkiisa": 2722,
      "##aana": 2723,
      "qofku": 2724,
      "##aayey": 2725,
      "subax": 2726,
      "##uc": 2727,
      "##jab": 2728,
      "barnaamijyada": 2729,
      "imtix": 2730,
      "uganda": 2731,
      "##kiisii": 2732,
      "mashaar": 2733,
      "hadaba": 2734,
      "khasaare": 2735,
      "talyaaniga": 2736,
      "maxaab": 2737,
      "shah": 2738,
      "qiimaha": 2739,
      "tix": 2740,
      "baq": 2741,
      "waad": 2742,
      "off": 2743,
      "waalid": 2744,
      "marw": 2745,
      "burco": 2746,
      "qoyska": 2747,
      "##ly": 2748,
      "duqa": 2749,
      "hadlayay": 2750,
      "##tana": 2751,
      "gudoomiye": 2752,
      "nasiib": 2753,
      "dastuur": 2754,
      "##onal": 2755,
      "waxaanay": 2756,
      "waqooyiga": 2757,
      "sweden": 2758,
      "ahay": 2759,
      "qofkii": 2760,
      "bak": 2761,
      "heys": 2762,
      "shirkadaha": 2763,
      "ir": 2764,
      "mic": 2765,
      "buuxda": 2766,
      "xaashi": 2767,
      "dumar": 2768,
      "erit": 2769,
      "qaato": 2770,
      "xili": 2771,
      "##aase": 2772,
      "xagga": 2773,
      "##ayga": 2774,
      "##adeeda": 2775,
      "##iimo": 2776,
      "geb": 2777,
      "socdaalka": 2778,
      "kas": 2779,
      "##cas": 2780,
      "hadana": 2781,
      "muuqda": 2782,
      "dhigan": 2783,
      "furan": 2784,
      "to": 2785,
      "africa": 2786,
      "waxuu": 2787,
      "odhan": 2788,
      "todobaad": 2789,
      "marin": 2790,
      "aduunka": 2791,
      "mashaariic": 2792,
      "##ihi": 2793,
      "addis": 2794,
      "hil": 2795,
      "baxaan": 2796,
      "gaaraya": 2797,
      "##iida": 2798,
      "khar": 2799,
      "##tr": 2800,
      "##dada": 2801,
      "madasha": 2802,
      "##waaq": 2803,
      "##quul": 2804,
      "lagula": 2805,
      "keeni": 2806,
      "joogay": 2807,
      "joogto": 2808,
      "argagixisada": 2809,
      "sanno": 2810,
      "talada": 2811,
      "jawaabay": 2812,
      "arrintaas": 2813,
      "xukunka": 2814,
      "iyag": 2815,
      "hadleen": 2816,
      "sirdoonka": 2817,
      "midka": 2818,
      "hotel": 2819,
      "ahaanba": 2820,
      "deni": 2821,
      "sanaag": 2822,
      "wadaa": 2823,
      "##acsan": 2824,
      "sed": 2825,
      "codsaday": 2826,
      "le": 2827,
      "lana": 2828,
      "xanuunka": 2829,
      "dibl": 2830,
      "##adihii": 2831,
      "##eynayo": 2832,
      "qaateen": 2833,
      "##iyihii": 2834,
      "fac": 2835,
      "##agal": 2836,
      "magaaladda": 2837,
      "##dhiga": 2838,
      "too": 2839,
      "guri": 2840,
      "yeesheen": 2841,
      "maalmihii": 2842,
      "daqiiq": 2843,
      "amni": 2844,
      "news": 2845,
      "di": 2846,
      "##weli": 2847,
      "abaaraha": 2848,
      "muuqata": 2849,
      "waday": 2850,
      "##ibr": 2851,
      "caab": 2852,
      "heerka": 2853,
      "##xig": 2854,
      "caf": 2855,
      "xassan": 2856,
      "##baar": 2857,
      "laascaan": 2858,
      "qabteen": 2859,
      "wuxu": 2860,
      "wargeyska": 2861,
      "dhalatay": 2862,
      "muran": 2863,
      "xeerka": 2864,
      "taalla": 2865,
      "saxaafadda": 2866,
      "dalbad": 2867,
      "2019": 2868,
      "##liga": 2869,
      "##koodu": 2870,
      "qabaan": 2871,
      "26": 2872,
      "goobjoog": 2873,
      "sheegayaa": 2874,
      "waxey": 2875,
      "badnaa": 2876,
      "inaysan": 2877,
      "joogo": 2878,
      "casil": 2879,
      "galin": 2880,
      "taliska": 2881,
      "##aabta": 2882,
      "jid": 2883,
      "xubnood": 2884,
      "wakiilada": 2885,
      "gaal": 2886,
      "22": 2887,
      "daab": 2888,
      "galab": 2889,
      "milit": 2890,
      "hooyo": 2891,
      "##lf": 2892,
      "xaqiijin": 2893,
      "raisul": 2894,
      "##oolka": 2895,
      "##kiin": 2896,
      "xirf": 2897,
      "##est": 2898,
      "gudbin": 2899,
      "##adeen": 2900,
      "kiis": 2901,
      "eego": 2902,
      "dhar": 2903,
      "bash": 2904,
      "qaybaha": 2905,
      "awoodda": 2906,
      "joogta": 2907,
      "bid": 2908,
      "sok": 2909,
      "codka": 2910,
      "isbitaalka": 2911,
      "ic": 2912,
      "socdaal": 2913,
      "tani": 2914,
      "##oodu": 2915,
      "khasaaraha": 2916,
      "horeysay": 2917,
      "gaareen": 2918,
      "tiri": 2919,
      "soomaaliga": 2920,
      "##ou": 2921,
      "siis": 2922,
      "laabtay": 2923,
      "ayaana": 2924,
      "aal": 2925,
      "sim": 2926,
      "hawlaha": 2927,
      "gun": 2928,
      "tegay": 2929,
      "##iyadeed": 2930,
      "maxaabiis": 2931,
      "waraab": 2932,
      "rayidka": 2933,
      "mir": 2934,
      "arrinta": 2935,
      "awgeed": 2936,
      "##tigii": 2937,
      "xaqiij": 2938,
      "##eystir": 2939,
      "siyaasad": 2940,
      "dimuq": 2941,
      "socotay": 2942,
      "##gaha": 2943,
      "adiga": 2944,
      "bri": 2945,
      "bilowday": 2946,
      "faransiiska": 2947,
      "dhigtay": 2948,
      "##elle": 2949,
      "##din": 2950,
      "iid": 2951,
      "khamiis": 2952,
      "horeeyay": 2953,
      "horm": 2954,
      "bang": 2955,
      "office": 2956,
      "wakaal": 2957,
      "##hor": 2958,
      "caalami": 2959,
      "macn": 2960,
      "laascaanood": 2961,
      "qm": 2962,
      "##ko": 2963,
      "dibna": 2964,
      "daryeel": 2965,
      "hol": 2966,
      "jil": 2967,
      "##ej": 2968,
      "tartanka": 2969,
      "##ley": 2970,
      "jirey": 2971,
      "xogta": 2972,
      "##sig": 2973,
      "saameyn": 2974,
      "celin": 2975,
      "##eo": 2976,
      "akhriso": 2977,
      "##ladda": 2978,
      "joojin": 2979,
      "tartan": 2980,
      "##dal": 2981,
      "##addiisa": 2982,
      "qadar": 2983,
      "adeegsan": 2984,
      "weeraray": 2985,
      "ahan": 2986,
      "how": 2987,
      "amaan": 2988,
      "tw": 2989,
      "##iyayaasha": 2990,
      "faraxsan": 2991,
      "##aabada": 2992,
      "wq": 2993,
      "waxbarasho": 2994,
      "##aystir": 2995,
      "faal": 2996,
      "dhigeen": 2997,
      "waxgar": 2998,
      "gudub": 2999,
      "colaad": 3000,
      "yeelay": 3001,
      "taageerada": 3002,
      "23": 3003,
      "maraykan": 3004,
      "guuleed": 3005,
      "##naanka": 3006,
      "wadata": 3007,
      "maalgash": 3008,
      "magalada": 3009,
      "##bka": 3010,
      "ragga": 3011,
      "sababay": 3012,
      "jaan": 3013,
      "laaanta": 3014,
      "kuf": 3015,
      "abaabul": 3016,
      "nac": 3017,
      "jacayl": 3018,
      "baraha": 3019,
      "heshiiskii": 3020,
      "maqal": 3021,
      "jooj": 3022,
      "xeebaha": 3023,
      "dhallinyarada": 3024,
      "##eeyaa": 3025,
      "cidda": 3026,
      "##ei": 3027,
      "kacay": 3028,
      "suud": 3029,
      "afd": 3030,
      "hanti": 3031,
      "habka": 3032,
      "##nuuc": 3033,
      "##irka": 3034,
      "ram": 3035,
      "bogaad": 3036,
      "jaraa": 3037,
      "jidh": 3038,
      "aqb": 3039,
      "hoosta": 3040,
      "filan": 3041,
      "rot": 3042,
      "meelo": 3043,
      "bilaabo": 3044,
      "ded": 3045,
      "##aca": 3046,
      "aheyn": 3047,
      "taliye": 3048,
      "shirkan": 3049,
      "##qaan": 3050,
      "waqtiga": 3051,
      "dhaweyn": 3052,
      "caddaal": 3053,
      "kaalin": 3054,
      "amb": 3055,
      "waar": 3056,
      "kuxig": 3057,
      "nooca": 3058,
      "corona": 3059,
      "qoor": 3060,
      "meesh": 3061,
      "suaal": 3062,
      "suurta": 3063,
      "##igel": 3064,
      "##nahay": 3065,
      "shiikh": 3066,
      "##oodi": 3067,
      "faaid": 3068,
      "cayaaraha": 3069,
      "halkaa": 3070,
      "cadaado": 3071,
      "##iinka": 3072,
      "shakh": 3073,
      "nagu": 3074,
      "quraanka": 3075,
      "iran": 3076,
      "beeraha": 3077,
      "baxeen": 3078,
      "hak": 3079,
      "sanadka": 3080,
      "##ober": 3081,
      "cusmaan": 3082,
      "##de": 3083,
      "saari": 3084,
      "tig": 3085,
      "abiy": 3086,
      "guuleystay": 3087,
      "gelinta": 3088,
      "siyaasiyiin": 3089,
      "sheega": 3090,
      "hadashay": 3091,
      "##gol": 3092,
      "xabsi": 3093,
      "hindiya": 3094,
      "mamnuuc": 3095,
      "scw": 3096,
      "doorashadii": 3097,
      "gobal": 3098,
      "waafaq": 3099,
      "suuriya": 3100,
      "say": 3101,
      "##balka": 3102,
      "dhaawacmay": 3103,
      "daacish": 3104,
      "shak": 3105,
      "tahr": 3106,
      "bixiyey": 3107,
      "cambaar": 3108,
      "saareen": 3109,
      "##eyr": 3110,
      "##sl": 3111,
      "##ika": 3112,
      "arko": 3113,
      "aada": 3114,
      "isbedel": 3115,
      "weeraro": 3116,
      "waaxda": 3117,
      "caruurta": 3118,
      "##akada": 3119,
      "sameeyaan": 3120,
      "alb": 3121,
      "##eyna": 3122,
      "2021": 3123,
      "##ook": 3124,
      "new": 3125,
      "##jum": 3126,
      "qodobka": 3127,
      "wadooyinka": 3128,
      "kaalinta": 3129,
      "hadli": 3130,
      "nor": 3131,
      "yeed": 3132,
      "bas": 3133,
      "yaa": 3134,
      "dhaliil": 3135,
      "farr": 3136,
      "howlgalka": 3137,
      "rotec": 3138,
      "shabeellaha": 3139,
      "dalku": 3140,
      "baarlamanka": 3141,
      "hawlgal": 3142,
      "qir": 3143,
      "siyaad": 3144,
      "galka": 3145,
      "cadde": 3146,
      "qanc": 3147,
      "##aynayaa": 3148,
      "halkii": 3149,
      "taasina": 3150,
      "rof": 3151,
      "afduub": 3152,
      "dekedda": 3153,
      "imaanaya": 3154,
      "dhaqdhaq": 3155,
      "goaam": 3156,
      "hormar": 3157,
      "qaadatay": 3158,
      "##qabad": 3159,
      "##eysiga": 3160,
      "carar": 3161,
      "sidee": 3162,
      "##adi": 3163,
      "oga": 3164,
      "wararkii": 3165,
      "##km": 3166,
      "xildhibaannada": 3167,
      "cansh": 3168,
      "##eeys": 3169,
      "tahriib": 3170,
      "til": 3171,
      "neb": 3172,
      "##sanaa": 3173,
      "ast": 3174,
      "xidhiidhka": 3175,
      "dhaar": 3176,
      "sif": 3177,
      "kob": 3178,
      "jen": 3179,
      "miy": 3180,
      "##aaba": 3181,
      "##ke": 3182,
      "cirka": 3183,
      "shaqaal": 3184,
      "soomaalidu": 3185,
      "adeegyada": 3186,
      "##sato": 3187,
      "mustaqbalka": 3188,
      "dhexmaray": 3189,
      "##bix": 3190,
      "helin": 3191,
      "rotected": 3192,
      "##ity": 3193,
      "dugsiga": 3194,
      "barlam": 3195,
      "carruurta": 3196,
      "farsam": 3197,
      "koofur": 3198,
      "illa": 3199,
      "##tain": 3200,
      "##ahaasi": 3201,
      "qabsaday": 3202,
      "##eyno": 3203,
      "hory": 3204,
      "caadi": 3205,
      "tallaabo": 3206,
      "##adaa": 3207,
      "##bac": 3208,
      "lagama": 3209,
      "##aadhan": 3210,
      "##ork": 3211,
      "feb": 3212,
      "2015": 3213,
      "##cid": 3214,
      "##eynayaa": 3215,
      "danbe": 3216,
      "##aysiga": 3217,
      "196": 3218,
      "twit": 3219,
      "##uary": 3220,
      "##uudi": 3221,
      "goan": 3222,
      "shaba": 3223,
      "##ts": 3224,
      "##rea": 3225,
      "dhawaad": 3226,
      "##haan": 3227,
      "mise": 3228,
      "toddobaad": 3229,
      "##aham": 3230,
      "wata": 3231,
      "garowe": 3232,
      "ris": 3233,
      "aqoonyahan": 3234,
      "##201": 3235,
      "waxqabad": 3236,
      "sux": 3237,
      "muuqaalka": 3238,
      "macalin": 3239,
      "fasax": 3240,
      "qabaa": 3241,
      "dhaqdhaqaaq": 3242,
      "##imaad": 3243,
      "doonaya": 3244,
      "eg": 3245,
      "##bit": 3246,
      "##ier": 3247,
      "diyaarad": 3248,
      "##fs": 3249,
      "meyd": 3250,
      "kulankii": 3251,
      "madaxwaynaha": 3252,
      "soomaaliland": 3253,
      "dambeysay": 3254,
      "booqday": 3255,
      "baarlamaan": 3256,
      "fulinta": 3257,
      "twitter": 3258,
      "jun": 3259,
      "doonayaan": 3260,
      "ogaaday": 3261,
      "shidaalka": 3262,
      "socoto": 3263,
      "dowladdu": 3264,
      "isw": 3265,
      "hadlaya": 3266,
      "dhiska": 3267,
      "xilliga": 3268,
      "siyaasi": 3269,
      "boqortooyada": 3270,
      "##eyl": 3271,
      "liib": 3272,
      "waayey": 3273,
      "eeb": 3274,
      "xooga": 3275,
      "##taal": 3276,
      "wasiirkii": 3277,
      "##aland": 3278,
      "moha": 3279,
      "aqal": 3280,
      "qalin": 3281,
      "haysta": 3282,
      "burcad": 3283,
      "daha": 3284,
      "##ooye": 3285,
      "rw": 3286,
      "maskax": 3287,
      "allah": 3288,
      "kuraas": 3289,
      "daal": 3290,
      "gabar": 3291,
      "hoggaanka": 3292,
      "natiijada": 3293,
      "dhisay": 3294,
      "bir": 3295,
      "runtii": 3296,
      "liiska": 3297,
      "iim": 3298,
      "baas": 3299,
      "suudaan": 3300,
      "daabac": 3301,
      "badani": 3302,
      "kooxo": 3303,
      "horreysay": 3304,
      "##ulka": 3305,
      "##tor": 3306,
      "dhibaatooyinka": 3307,
      "nabadgel": 3308,
      "##naba": 3309,
      "aqoonta": 3310,
      "dhaawacmeen": 3311,
      "##mayaan": 3312,
      "##umo": 3313,
      "siday": 3314,
      "xuduud": 3315,
      "badh": 3316,
      "iyana": 3317,
      "waqtig": 3318,
      "deegaano": 3319,
      "yaas": 3320,
      "xasuuq": 3321,
      "falast": 3322,
      "wacy": 3323,
      "tidh": 3324,
      "ukra": 3325,
      "##koodii": 3326,
      "warbixinta": 3327,
      "labadii": 3328,
      "##uk": 3329,
      "dhimashada": 3330,
      "ahmed": 3331,
      "calaam": 3332,
      "kalana": 3333,
      "##diisa": 3334,
      "gor": 3335,
      "qay": 3336,
      "xarumaha": 3337,
      "jin": 3338,
      "xisbi": 3339,
      "28": 3340,
      "maqaal": 3341,
      "khudbad": 3342,
      "##igoo": 3343,
      "isgaar": 3344,
      "##imil": 3345,
      "abwaan": 3346,
      "wadatash": 3347,
      "celiyay": 3348,
      "##aysi": 3349,
      "booqasho": 3350,
      "muhiimka": 3351,
      "maxaad": 3352,
      "laamaha": 3353,
      "caj": 3354,
      "gad": 3355,
      "shub": 3356,
      "islaamiga": 3357,
      "britain": 3358,
      "beegan": 3359,
      "xidhay": 3360,
      "warram": 3361,
      "xoojinta": 3362,
      "daar": 3363,
      "markay": 3364,
      "qaraxyo": 3365,
      "heshay": 3366,
      "##taada": 3367,
      "kom": 3368,
      "suldaan": 3369,
      "gargaarka": 3370,
      "sin": 3371,
      "##kuna": 3372,
      "fadhiya": 3373,
      "xulka": 3374,
      "faceb": 3375,
      "gurmadka": 3376,
      "waafaqsan": 3377,
      "faahin": 3378,
      "oa": 3379,
      "kursiga": 3380,
      "##ge": 3381,
      "daraas": 3382,
      "eritrea": 3383,
      "##aani": 3384,
      "yaabaa": 3385,
      "dalx": 3386,
      "jul": 3387,
      "40": 3388,
      "faahfaahin": 3389,
      "igad": 3390,
      "ucid": 3391,
      "idinka": 3392,
      "sucuudiga": 3393,
      "##ld": 3394,
      "masaaj": 3395,
      "miin": 3396,
      "yaqaano": 3397,
      "kulul": 3398,
      "raax": 3399,
      "hadh": 3400,
      "ciidammada": 3401,
      "ballaaran": 3402,
      "fulin": 3403,
      "##uudaha": 3404,
      "digay": 3405,
      "awooda": 3406,
      "jih": 3407,
      "horjeeda": 3408,
      "ukraine": 3409,
      "nisa": 3410,
      "yimaadeen": 3411,
      "sy": 3412,
      "qaraxii": 3413,
      "koobka": 3414,
      "ila": 3415,
      "toog": 3416,
      "saarka": 3417,
      "baxo": 3418,
      "shaaciyay": 3419,
      "##kiiba": 3420,
      "bani": 3421,
      "ilo": 3422,
      "sharax": 3423,
      "##uuda": 3424,
      "danbeeyay": 3425,
      "federaal": 3426,
      "dimuqraad": 3427,
      "falastiin": 3428,
      "##same": 3429,
      "loona": 3430,
      "ducaale": 3431,
      "hadlayo": 3432,
      "##ist": 3433,
      "##lahi": 3434,
      "cadaad": 3435,
      "hayn": 3436,
      "kit": 3437,
      "soomaliya": 3438,
      "suxuf": 3439,
      "sud": 3440,
      "hayay": 3441,
      "wasiirrada": 3442,
      "kahor": 3443,
      "muxuu": 3444,
      "wor": 3445,
      "iminka": 3446,
      "##dog": 3447,
      "deggan": 3448,
      "wakhti": 3449,
      "madaxwayne": 3450,
      "khayr": 3451,
      "wakiilka": 3452,
      "##anayo": 3453,
      "wafdiga": 3454,
      "set": 3455,
      "##ici": 3456,
      "dhameystir": 3457,
      "##idii": 3458,
      "xataa": 3459,
      "##naanta": 3460,
      "xoojin": 3461,
      "##eysatay": 3462,
      "shaqaale": 3463,
      "hanjab": 3464,
      "celiyo": 3465,
      "shisheeye": 3466,
      "xarakada": 3467,
      "oct": 3468,
      "dec": 3469,
      "br": 3470,
      "maamulada": 3471,
      "xaka": 3472,
      "saad": 3473,
      "sababtoo": 3474,
      "ayaad": 3475,
      "wasiiro": 3476,
      "##ss": 3477,
      "geli": 3478,
      "##waa": 3479,
      "mararka": 3480,
      "shabak": 3481,
      "ogaan": 3482,
      "##malka": 3483,
      "milatar": 3484,
      "beledweyne": 3485,
      "iyaguna": 3486,
      "habeenkii": 3487,
      "danta": 3488,
      "##iidha": 3489,
      "##omaas": 3490,
      "##gaduud": 3491,
      "aadanaha": 3492,
      "loola": 3493,
      "##usha": 3494,
      "sour": 3495,
      "mow": 3496,
      "jaraaid": 3497,
      "##aysto": 3498,
      "rajo": 3499,
      "risaal": 3500,
      "shaqeeyo": 3501,
      "##ne": 3502,
      "isra": 3503,
      "dhexdhex": 3504,
      "ciq": 3505,
      "ingiriis": 3506,
      "oggol": 3507,
      "qabtaan": 3508,
      "dalbaday": 3509,
      "dardar": 3510,
      "sawiro": 3511,
      "rabsh": 3512,
      "##iirta": 3513,
      "dhabta": 3514,
      "##wm": 3515,
      "laguna": 3516,
      "aragtida": 3517,
      "dhicin": 3518,
      "gabadha": 3519,
      "garsoorka": 3520,
      "##way": 3521,
      "lays": 3522,
      "cuna": 3523,
      "wehel": 3524,
      "##igaa": 3525,
      "garaad": 3526,
      "inkasta": 3527,
      "riday": 3528,
      "tacsi": 3529,
      "hantida": 3530,
      "markaan": 3531,
      "wariye": 3532,
      "##jo": 3533,
      "##gelin": 3534,
      "tij": 3535,
      "june": 3536,
      "geel": 3537,
      "maalmaha": 3538,
      "jirka": 3539,
      "kon": 3540,
      "hesho": 3541,
      "xakam": 3542,
      "cig": 3543,
      "sidaasi": 3544,
      "bol": 3545,
      "source": 3546,
      "kuman": 3547,
      "suug": 3548,
      "raash": 3549,
      "xidhan": 3550,
      "dhaqam": 3551,
      "##ye": 3552,
      "yimaada": 3553,
      "##dey": 3554,
      "aril": 3555,
      "at": 3556,
      "xirsi": 3557,
      "xidhiidha": 3558,
      "##onald": 3559,
      "##adani": 3560,
      "dugsiyada": 3561,
      "filayo": 3562,
      "hod": 3563,
      "facebook": 3564,
      "tog": 3565,
      "tageen": 3566,
      "##gelinta": 3567,
      "##eikh": 3568,
      "gabaga": 3569,
      "##maa": 3570,
      "gaariga": 3571,
      "markale": 3572,
      "amray": 3573,
      "hadlo": 3574,
      "caqabad": 3575,
      "##madax": 3576,
      "xadgud": 3577,
      "kaar": 3578,
      "waddooyinka": 3579,
      "jubaland": 3580,
      "naxariistee": 3581,
      "qeybo": 3582,
      "magaciisa": 3583,
      "kordhin": 3584,
      "umadda": 3585,
      "faysal": 3586,
      "dibada": 3587,
      "##aro": 3588,
      "bulsho": 3589,
      "ayada": 3590,
      "afgooye": 3591,
      "sheikh": 3592,
      "bartamaha": 3593,
      "israaiil": 3594,
      "us": 3595,
      "claahi": 3596,
      "tiir": 3597,
      "riix": 3598,
      "caawin": 3599,
      "haboon": 3600,
      "inaga": 3601,
      "dhibaatooyin": 3602,
      "dagaalanka": 3603,
      "safiir": 3604,
      "maalmo": 3605,
      "ci": 3606,
      "dard": 3607,
      "murt": 3608,
      "fashil": 3609,
      "bos": 3610,
      "bixiyo": 3611,
      "midnimada": 3612,
      "isbitaal": 3613,
      "saddexaad": 3614,
      "##eega": 3615,
      "##irus": 3616,
      "waxyaabo": 3617,
      "codsan": 3618,
      "qabashada": 3619,
      "##adoodu": 3620,
      "geelle": 3621,
      "2012": 3622,
      "dfs": 3623,
      "##oole": 3624,
      "kubadda": 3625,
      "barak": 3626,
      "safaaradda": 3627,
      "sum": 3628,
      "##kin": 3629,
      "rasmiga": 3630,
      "kow": 3631,
      "donald": 3632,
      "jsl": 3633,
      "somaal": 3634,
      "boolis": 3635,
      "sil": 3636,
      "jeedin": 3637,
      "arbac": 3638,
      "fin": 3639,
      "galgaduud": 3640,
      "##nagu": 3641,
      "musharaxiinta": 3642,
      "yaasiin": 3643,
      "waydii": 3644,
      "isgaarsiinta": 3645,
      "talag": 3646,
      "naq": 3647,
      "##iraan": 3648,
      "ud": 3649,
      "mooshin": 3650,
      "##iyadii": 3651,
      "dhexdhexaad": 3652,
      "qodobada": 3653,
      "fariis": 3654,
      "bixinta": 3655,
      "xisaabta": 3656,
      "muhiimsan": 3657,
      "yah": 3658,
      "barbar": 3659,
      "baran": 3660,
      "khaliif": 3661,
      "##aadan": 3662,
      "iwm": 3663,
      "aannu": 3664,
      "saamayn": 3665,
      "furmay": 3666,
      "##igaan": 3667,
      "##uqdisho": 3668,
      "yimaado": 3669,
      "guuleys": 3670,
      "baxsan": 3671,
      "warsame": 3672,
      "taa": 3673,
      "##ws": 3674,
      "bashiir": 3675,
      "maay": 3676,
      "kir": 3677,
      "weydiin": 3678,
      "khub": 3679,
      "maasuq": 3680,
      "##toy": 3681,
      "cuntada": 3682,
      "##ineed": 3683,
      "boqolaal": 3684,
      "beegsaday": 3685,
      "jarmalka": 3686,
      "##aso": 3687,
      "aqbal": 3688,
      "macaam": 3689,
      "baabuur": 3690,
      "wasaaradaha": 3691,
      "##oodii": 3692,
      "##aynayo": 3693,
      "caqab": 3694,
      "dalkooda": 3695,
      "st": 3696,
      "dhimatay": 3697,
      "ideo": 3698,
      "fool": 3699,
      "caanka": 3700,
      "guusha": 3701,
      "xadh": 3702,
      "niyad": 3703,
      "arkaan": 3704,
      "##are": 3705,
      "culimada": 3706,
      "abd": 3707,
      "##able": 3708,
      "saciid": 3709,
      "farxad": 3710,
      "sadex": 3711,
      "heleen": 3712,
      "arki": 3713,
      "militar": 3714,
      "##igaasi": 3715,
      "mood": 3716,
      "asx": 3717,
      "shaaca": 3718,
      "ciraaq": 3719,
      "muujiyay": 3720,
      "wayd": 3721,
      "##hi": 3722,
      "dacwad": 3723,
      "yeeray": 3724,
      "leen": 3725,
      "gala": 3726,
      "xaw": 3727,
      "dhaco": 3728,
      "##eeyaha": 3729,
      "for": 3730,
      "##can": 3731,
      "##rid": 3732,
      "macluumaadka": 3733,
      "xorr": 3734,
      "shaqsiy": 3735,
      "lacaga": 3736,
      "arrintaasi": 3737,
      "xafiiskiisa": 3738,
      "##neyd": 3739,
      "caadiga": 3740,
      "ciyaarta": 3741,
      "qeybaha": 3742,
      "qad": 3743,
      "hannaanka": 3744,
      "xasuus": 3745,
      "dhiso": 3746,
      "##eeshee": 3747,
      "sedd": 3748,
      "balad": 3749,
      "iskuul": 3750,
      "bac": 3751,
      "israel": 3752,
      "cunto": 3753,
      "aqoonsan": 3754,
      "febr": 3755,
      "maskaxda": 3756,
      "##yadda": 3757,
      "haysan": 3758,
      "internetka": 3759,
      "badal": 3760,
      "lum": 3761,
      "qorsha": 3762,
      "garaac": 3763,
      "duhur": 3764,
      "dambayn": 3765,
      "july": 3766,
      "xumo": 3767,
      "##aarta": 3768,
      "##waanka": 3769,
      "duqeyn": 3770,
      "setember": 3771,
      "mursal": 3772,
      "world": 3773,
      "198": 3774,
      "ururada": 3775,
      "daacad": 3776,
      "hirgal": 3777,
      "haysto": 3778,
      "dhiman": 3779,
      "madaxban": 3780,
      "##jiga": 3781,
      "tukar": 3782,
      "danaha": 3783,
      "29": 3784,
      "rabo": 3785,
      "guddida": 3786,
      "yiraahdo": 3787,
      "kulankan": 3788,
      "shirkada": 3789,
      "dhalay": 3790,
      "coronairus": 3791,
      "aaddan": 3792,
      "habboon": 3793,
      "gabdha": 3794,
      "tababarka": 3795,
      "falan": 3796,
      "deegaannada": 3797,
      "xaj": 3798,
      "daraad": 3799,
      "raysal": 3800,
      "##aajir": 3801,
      "##eemail": 3802,
      "qaadaan": 3803,
      "luuq": 3804,
      "eebe": 3805,
      "##aawe": 3806,
      "##eenna": 3807,
      "marnaba": 3808,
      "xukuumaddu": 3809,
      "cabdilaahi": 3810,
      "saldhiga": 3811,
      "gooni": 3812,
      "tuh": 3813,
      "cabdirashiid": 3814,
      "mug": 3815,
      "aragti": 3816,
      "qeex": 3817,
      "##aheeda": 3818,
      "keeno": 3819,
      "ben": 3820,
      "gaw": 3821,
      "##isal": 3822,
      "warshadaha": 3823,
      "tukaraq": 3824,
      "xeel": 3825,
      "##eedyada": 3826,
      "geysan": 3827,
      "qaaradda": 3828,
      "munaasib": 3829,
      "dabad": 3830,
      "dayac": 3831,
      "tak": 3832,
      "xadka": 3833,
      "##taar": 3834,
      "doolar": 3835,
      "##gab": 3836,
      "60": 3837,
      "cil": 3838,
      "talagalay": 3839,
      "maql": 3840,
      "dagaallam": 3841,
      "shaki": 3842,
      "adeegsaday": 3843,
      "##keenna": 3844,
      "faraha": 3845,
      "qaadka": 3846,
      "wajahan": 3847,
      "waxgaradka": 3848,
      "kuxigeenka": 3849,
      "onlineemail": 3850,
      "qodobo": 3851,
      "dhaqaal": 3852,
      "oog": 3853,
      "##dhow": 3854,
      "noember": 3855,
      "cada": 3856,
      "##aamo": 3857,
      "sheego": 3858,
      "xusuus": 3859,
      "##hooda": 3860,
      "##giisa": 3861,
      "hoy": 3862,
      "dhacaan": 3863,
      "waayeen": 3864,
      "##arada": 3865,
      "guddoonka": 3866,
      "murug": 3867,
      "sudan": 3868,
      "afjar": 3869,
      "joogtada": 3870,
      "qaabilay": 3871,
      "goaankii": 3872,
      "xaafadda": 3873,
      "huf": 3874,
      "dhaliyay": 3875,
      "riy": 3876,
      "maah": 3877,
      "dhamaaday": 3878,
      "cabdiweli": 3879,
      "uur": 3880,
      "awdal": 3881,
      "##sug": 3882,
      "diblomaas": 3883,
      "##son": 3884,
      "magacyada": 3885,
      "raaciyay": 3886,
      "gabagab": 3887,
      "lo": 3888,
      "maqlay": 3889,
      "ilm": 3890,
      "##outi": 3891,
      "xaaladaha": 3892,
      "argagax": 3893,
      "laheyn": 3894,
      "fikr": 3895,
      "dareem": 3896,
      "##wga": 3897,
      "midoobey": 3898,
      "wakiillada": 3899,
      "kuuriyada": 3900,
      "masj": 3901,
      "dirtay": 3902,
      "ugaas": 3903,
      "aadka": 3904,
      "##nimadii": 3905,
      "suaalo": 3906,
      "ins": 3907,
      "marayo": 3908,
      "saxaafadeed": 3909,
      "madow": 3910,
      "rak": 3911,
      "##wada": 3912,
      "degmad": 3913,
      "midna": 3914,
      "dhigi": 3915,
      "sheegin": 3916,
      "mooshinka": 3917,
      "kursi": 3918,
      "197": 3919,
      "##isaa": 3920,
      "barlamaanka": 3921,
      "xilligii": 3922,
      "##casiis": 3923,
      "marar": 3924,
      "aqr": 3925,
      "jabh": 3926,
      "qiimo": 3927,
      "indhaha": 3928,
      "erdog": 3929,
      "##baa": 3930,
      "taqaan": 3931,
      "ogolaan": 3932,
      "xerada": 3933,
      "hayso": 3934,
      "##diid": 3935,
      "dhir": 3936,
      "dhacaya": 3937,
      "saakay": 3938,
      "december": 3939,
      "talaab": 3940,
      "wafd": 3941,
      "jig": 3942,
      "do": 3943,
      "##gaal": 3944,
      "##toob": 3945,
      "##qif": 3946,
      "##keedu": 3947,
      "##andar": 3948,
      "heshiisiinta": 3949,
      "xoolo": 3950,
      "##gi": 3951,
      "##aashii": 3952,
      "yaabo": 3953,
      "cllaahi": 3954,
      "markab": 3955,
      "waxaannu": 3956,
      "dum": 3957,
      "##wad": 3958,
      "##muqdisho": 3959,
      "xusan": 3960,
      "##udh": 3961,
      "curr": 3962,
      "dhamaystir": 3963,
      "##ayr": 3964,
      "shacbiga": 3965,
      "wab": 3966,
      "october": 3967,
      "hogaanka": 3968,
      "qarxay": 3969,
      "noqdeen": 3970,
      "sannadkan": 3971,
      "wil": 3972,
      "waddamada": 3973,
      "yeeshaan": 3974,
      "##sen": 3975,
      "shahaad": 3976,
      "dalkiisa": 3977,
      "qaranimo": 3978,
      "xaqa": 3979,
      "hoggaaminayo": 3980,
      "rasuul": 3981,
      "ogeyn": 3982,
      "hirshabelle": 3983,
      "##aystaan": 3984,
      "yimaadaan": 3985,
      "geeyay": 3986,
      "ham": 3987,
      "mashquul": 3988,
      "bary": 3989,
      "wareysi": 3990,
      "horreeyay": 3991,
      "isbad": 3992,
      "##anews": 3993,
      "2013": 3994,
      "##goys": 3995,
      "leenahay": 3996,
      "##owday": 3997,
      "##sana": 3998,
      "2022": 3999,
      "fa": 4000,
      "rabaa": 4001,
      "marxuumka": 4002,
      "jiraa": 4003,
      "iyadoona": 4004,
      "##ayna": 4005,
      "dd": 4006,
      "askarta": 4007,
      "##ji": 4008,
      "allaha": 4009,
      "shabeelle": 4010,
      "##beed": 4011,
      "gole": 4012,
      "baahida": 4013,
      "##kayga": 4014,
      "##ixiinta": 4015,
      "adduun": 4016,
      "marxal": 4017,
      "##ently": 4018,
      "watay": 4019,
      "safarka": 4020,
      "waddo": 4021,
      "dagaalyahan": 4022,
      "tala": 4023,
      "digniin": 4024,
      "##ishanka": 4025,
      "suurto": 4026,
      "fic": 4027,
      "31": 4028,
      "isgoys": 4029,
      "canshuur": 4030,
      "isa": 4031,
      "dabiic": 4032,
      "bixiyaan": 4033,
      "##inayey": 4034,
      "hawsh": 4035,
      "musuqm": 4036,
      "gaadhi": 4037,
      "qalbi": 4038,
      "erdogan": 4039,
      "dooran": 4040,
      "##kuur": 4041,
      "banaanbax": 4042,
      "kax": 4043,
      "mujaahidiinta": 4044,
      "##eral": 4045,
      "faham": 4046,
      "den": 4047,
      "macallin": 4048,
      "aail": 4049,
      "eedeeyey": 4050,
      "aailable": 4051,
      "biiray": 4052,
      "baaqday": 4053,
      "currently": 4054,
      "dakh": 4055,
      "dheere": 4056,
      "halb": 4057,
      "mareykan": 4058,
      "saddexda": 4059,
      "wajah": 4060,
      "nabi": 4061,
      "##shir": 4062,
      "##wasaaraha": 4063,
      "agag": 4064,
      "falanq": 4065,
      "norway": 4066,
      "##agel": 4067,
      "##qal": 4068,
      "qabyaal": 4069,
      "air": 4070,
      "ok": 4071,
      "kalluum": 4072,
      "by": 4073,
      "wakaaladda": 4074,
      "dhalan": 4075,
      "khasaaro": 4076,
      "##saar": 4077,
      "2014": 4078,
      "##ile": 4079,
      "##tam": 4080,
      "soomaaliy": 4081,
      "federalka": 4082,
      "khudb": 4083,
      "fadlan": 4084,
      "##iido": 4085,
      "rayid": 4086,
      "##wal": 4087,
      "xiiso": 4088,
      "biy": 4089,
      "wash": 4090,
      "qul": 4091,
      "bartay": 4092,
      "jamaal": 4093,
      "shabeelaha": 4094,
      "mukh": 4095,
      "##dhigga": 4096,
      "email": 4097,
      "iiraan": 4098,
      "##aadaha": 4099,
      "##adiisu": 4100,
      "aya": 4101,
      "##isaaq": 4102,
      "hargaysa": 4103,
      "reebo": 4104,
      "##uubta": 4105,
      "waxaynu": 4106,
      "berri": 4107,
      "dhiga": 4108,
      "joojiyo": 4109,
      "xigtay": 4110,
      "bogag": 4111,
      "socdeen": 4112,
      "dhawaaqday": 4113,
      "danjire": 4114,
      "ololaha": 4115,
      "mahadsan": 4116,
      "##eriga": 4117,
      "boqolkiiba": 4118,
      "waay": 4119,
      "ciyaartoy": 4120,
      "doo": 4121,
      "##aanada": 4122,
      "##esh": 4123,
      "cirro": 4124,
      "ilaalada": 4125,
      "raacay": 4126,
      "kic": 4127,
      "wej": 4128,
      "musuqmaasuq": 4129,
      "ahlu": 4130,
      "geysteen": 4131,
      "##aati": 4132,
      "afghan": 4133,
      "kusii": 4134,
      "guulaystay": 4135,
      "##ashax": 4136,
      "##hn": 4137,
      "salka": 4138,
      "goobo": 4139,
      "hambaly": 4140,
      "aragtid": 4141,
      "dada": 4142,
      "masuuliyadda": 4143,
      "dabaal": 4144,
      "##iley": 4145,
      "yeesho": 4146,
      "warqad": 4147,
      "##eedyo": 4148,
      "qabatay": 4149,
      "mohamed": 4150,
      "xukumay": 4151,
      "jaray": 4152,
      "##raac": 4153,
      "augu": 4154,
      "maw": 4155,
      "dhegayso": 4156,
      "sn": 4157,
      "wasiirku": 4158,
      "hareer": 4159,
      "##ootay": 4160,
      "##yn": 4161,
      "isniin": 4162,
      "muujinaya": 4163,
      "diidan": 4164,
      "gali": 4165,
      "##iyaasha": 4166,
      "siiyaan": 4167,
      "sagaal": 4168,
      "ficil": 4169,
      "##fadh": 4170,
      "yariis": 4171,
      "gudiga": 4172,
      "allaah": 4173,
      "qorshay": 4174,
      "cigaal": 4175,
      "wareegtay": 4176,
      "sababo": 4177,
      "dhaxal": 4178,
      "kuraasta": 4179,
      "cajiib": 4180,
      "mat": 4181,
      "wareegeen": 4182,
      "guurka": 4183,
      "##kasta": 4184,
      "degmo": 4185,
      "waab": 4186,
      "##dheere": 4187,
      "son": 4188,
      "##aantii": 4189,
      "waxbarash": 4190,
      "##ington": 4191,
      "miisaaniyadda": 4192,
      "tooga": 4193,
      "ayaanu": 4194,
      "eegista": 4195,
      "iskugu": 4196,
      "erey": 4197,
      "geerida": 4198,
      "baax": 4199,
      "##aysteen": 4200,
      "##ladii": 4201,
      "guryaha": 4202,
      "kharash": 4203,
      "xeebta": 4204,
      "ilaaliyo": 4205,
      "idinku": 4206,
      "uul": 4207,
      "hubaal": 4208,
      "saal": 4209,
      "tidhi": 4210,
      "xilal": 4211,
      "cunaqab": 4212,
      "isbeddel": 4213,
      "qoto": 4214,
      "##deed": 4215,
      "tagaan": 4216,
      "##eria": 4217,
      "fata": 4218,
      "tamar": 4219,
      "qori": 4220,
      "jeb": 4221,
      "raali": 4222,
      "##sanayo": 4223,
      "##istaan": 4224,
      "##xan": 4225,
      "dawladdu": 4226,
      "munaasabadda": 4227,
      "isticmaalka": 4228,
      "djib": 4229,
      "##has": 4230,
      "taleef": 4231,
      "##igga": 4232,
      "august": 4233,
      "geliyo": 4234,
      "jeedo": 4235,
      "shaacisay": 4236,
      "bart": 4237,
      "ob": 4238,
      "jidka": 4239,
      "##waxaa": 4240,
      "doonayaa": 4241,
      "shuruuc": 4242,
      "fuliyay": 4243,
      "isticmaalo": 4244,
      "hayada": 4245,
      "##adiif": 4246,
      "##maar": 4247,
      "##antay": 4248,
      "ix": 4249,
      "yidhaah": 4250,
      "lacagaha": 4251,
      "wasiiru": 4252,
      "##siiyay": 4253,
      "inaanu": 4254,
      "hambalyo": 4255,
      "dhiibay": 4256,
      "boob": 4257,
      "##dooda": 4258,
      "weydiiyay": 4259,
      "dhuftay": 4260,
      "ey": 4261,
      "dahab": 4262,
      "wakhtig": 4263,
      "ceeb": 4264,
      "dawladaha": 4265,
      "sugidda": 4266,
      "##eda": 4267,
      "dadkaasi": 4268,
      "mor": 4269,
      "##jka": 4270,
      "hayaa": 4271,
      "dambi": 4272,
      "cadaalad": 4273,
      "##iintu": 4274,
      "##eymo": 4275,
      "xusid": 4276,
      "qarxa": 4277,
      "khus": 4278,
      "gaadho": 4279,
      "##tigan": 4280,
      "ujeedada": 4281,
      "##iisay": 4282,
      "dhaweeyey": 4283,
      "mahdi": 4284,
      "xiisadda": 4285,
      "luq": 4286,
      "jigjiga": 4287,
      "##neyn": 4288,
      "mari": 4289,
      "##oonida": 4290,
      "madaaf": 4291,
      "dega": 4292,
      "wajahay": 4293,
      "abuuray": 4294,
      "el": 4295,
      "unit": 4296,
      "dooda": 4297,
      "##oorka": 4298,
      "djibouti": 4299,
      "##sax": 4300,
      "waxaanan": 4301,
      "cilmiga": 4302,
      "ninkan": 4303,
      "##ibka": 4304,
      "wareegto": 4305,
      "kheyr": 4306,
      "xuska": 4307,
      "ge": 4308,
      "gaaban": 4309,
      "kayd": 4310,
      "washington": 4311,
      "maraykanku": 4312,
      "iigu": 4313,
      "muranka": 4314,
      "##aatka": 4315,
      "fek": 4316,
      "jirtaa": 4317,
      "tacl": 4318,
      "##yahanka": 4319,
      "qaadis": 4320,
      "xabad": 4321,
      "falal": 4322,
      "canada": 4323,
      "fran": 4324,
      "intooda": 4325,
      "doorka": 4326,
      "##wasaare": 4327,
      "weeye": 4328,
      "mustaf": 4329,
      "hodan": 4330,
      "madaafiic": 4331,
      "duruuf": 4332,
      "##lanka": 4333,
      "##anayaan": 4334,
      "qalad": 4335,
      "munaasabad": 4336,
      "inuusan": 4337,
      "muddada": 4338,
      "kall": 4339,
      "##aynin": 4340,
      "gudbiyay": 4341,
      "noqonaya": 4342,
      "geliyay": 4343,
      "horyaalka": 4344,
      "##ayaashii": 4345,
      "isha": 4346,
      "bangiga": 4347,
      "waanu": 4348,
      "iimaan": 4349,
      "hagaaj": 4350,
      "sokeeye": 4351,
      "uj": 4352,
      "##uut": 4353,
      "akhris": 4354,
      "baay": 4355,
      "afghanistan": 4356,
      "qaybo": 4357,
      "ex": 4358,
      "matal": 4359,
      "taliyihii": 4360,
      "cabdillaahi": 4361,
      "xasaasi": 4362,
      "xaqiijiyey": 4363,
      "hoggaamiyaha": 4364,
      "qaal": 4365,
      "lin": 4366,
      "saleeb": 4367,
      "hormuud": 4368,
      "nug": 4369,
      "weerarada": 4370,
      "qod": 4371,
      "diyaaradda": 4372,
      "##adoo": 4373,
      "gaashaandhigga": 4374,
      "500": 4375,
      "guurtida": 4376,
      "shaaciyey": 4377,
      "fuliyeen": 4378,
      "ann": 4379,
      "##uter": 4380,
      "mooy": 4381,
      "bank": 4382,
      "dabadeed": 4383,
      "mucaarad": 4384,
      "koror": 4385,
      "xigashada": 4386,
      "##iyeedka": 4387,
      "march": 4388,
      "##abadan": 4389,
      "tanaas": 4390,
      "geedi": 4391,
      "waxaase": 4392,
      "siman": 4393,
      "##eelka": 4394,
      "##ost": 4395,
      "muuqday": 4396,
      "marna": 4397,
      "35": 4398,
      "laheyd": 4399,
      "##eso": 4400,
      "galaya": 4401,
      "mushaar": 4402,
      "dardaar": 4403,
      "iil": 4404,
      "wiilka": 4405,
      "imika": 4406,
      "2011": 4407,
      "goos": 4408,
      "bor": 4409,
      "onlf": 4410,
      "boqorka": 4411,
      "##eerka": 4412,
      "gabdhaha": 4413,
      "shirkad": 4414,
      "##baha": 4415,
      "xumaan": 4416,
      "fiid": 4417,
      "##igooda": 4418,
      "yimi": 4419,
      "furs": 4420,
      "horyaal": 4421,
      "dilal": 4422,
      "marwo": 4423,
      "neef": 4424,
      "##aanshaha": 4425,
      "##bay": 4426,
      "deyn": 4427,
      "taala": 4428,
      "kalsooni": 4429,
      "gasho": 4430,
      "hanaanka": 4431,
      "##coon": 4432,
      "diiriye": 4433,
      "qaraxyada": 4434,
      "##naq": 4435,
      "##oodka": 4436,
      "xaflad": 4437,
      "muuqato": 4438,
      "oro": 4439,
      "saxaf": 4440,
      "##uro": 4441,
      "##ite": 4442,
      "arim": 4443,
      "##hu": 4444,
      "dhaawacay": 4445,
      "gantaal": 4446,
      "markiiba": 4447,
      "dhaawaca": 4448,
      "gee": 4449,
      "madrid": 4450,
      "##siiyo": 4451,
      "united": 4452,
      "##ww": 4453,
      "bixisay": 4454,
      "dambeyntii": 4455,
      "laakin": 4456,
      "agagaarka": 4457,
      "##ira": 4458,
      "mak": 4459,
      "mashruuca": 4460,
      "magacaabi": 4461,
      "lacago": 4462,
      "helayo": 4463,
      "##tta": 4464,
      "##urka": 4465,
      "##ula": 4466,
      "dibadbax": 4467,
      "markaasna": 4468,
      "saaraan": 4469,
      "##lad": 4470,
      "##ahaa": 4471,
      "dedaal": 4472,
      "taariikhdu": 4473,
      "jiif": 4474,
      "iskaga": 4475,
      "martay": 4476,
      "saldhigga": 4477,
      "calee": 4478,
      "nala": 4479,
      "ciidamadii": 4480,
      "cayaar": 4481,
      "xadgudub": 4482,
      "##oosha": 4483,
      "raal": 4484,
      "kalsoonida": 4485,
      "nad": 4486,
      "qoon": 4487,
      "guuldar": 4488,
      "muwaadiniinta": 4489,
      "shirar": 4490,
      "##baan": 4491,
      "barwaaq": 4492,
      "kum": 4493,
      "aar": 4494,
      "ali": 4495,
      "oran": 4496,
      "jii": 4497,
      "ramadaan": 4498,
      "##aysatay": 4499,
      "##ahaan": 4500,
      "bini": 4501,
      "##ano": 4502,
      "aqoonsiga": 4503,
      "##tional": 4504,
      "shire": 4505,
      "madaxtin": 4506,
      "doorto": 4507,
      "shidaal": 4508,
      "1aad": 4509,
      "##aheedu": 4510,
      "bada": 4511,
      "##igh": 4512,
      "##tiin": 4513,
      "##eraal": 4514,
      "xaqiijiyeen": 4515,
      "celinta": 4516,
      "halgan": 4517,
      "jag": 4518,
      "cabdal": 4519,
      "##gt": 4520,
      "seddex": 4521,
      "muda": 4522,
      "xaafada": 4523,
      "waraabe": 4524,
      "jiri": 4525,
      "casuum": 4526,
      "fariin": 4527,
      "haystaan": 4528,
      "sababtay": 4529,
      "dheel": 4530,
      "fag": 4531,
      "daraj": 4532,
      "afgar": 4533,
      "gabiley": 4534,
      "##lab": 4535,
      "adi": 4536,
      "##ham": 4537,
      "midda": 4538,
      "qabsoomay": 4539,
      "hadlin": 4540,
      "##aysaan": 4541,
      "dalkan": 4542,
      "wareejiyay": 4543,
      "liibiya": 4544,
      "imtixaan": 4545,
      "faq": 4546,
      "taageersan": 4547,
      "xaafadaha": 4548,
      "##aamka": 4549,
      "##eymaha": 4550,
      "khalad": 4551,
      "cisho": 4552,
      "saleebaan": 4553,
      "ilaaliyaha": 4554,
      "gaystay": 4555,
      "naag": 4556,
      "madaxtooy": 4557,
      "macaan": 4558,
      "dhallinyaro": 4559,
      "isgoyska": 4560,
      "wadeen": 4561,
      "laanta": 4562,
      "ilmaha": 4563,
      "##aakiib": 4564,
      "dawan": 4565,
      "##sida": 4566,
      "nn": 4567,
      "dagan": 4568,
      "rumeysan": 4569,
      "kulmeen": 4570,
      "sunna": 4571,
      "fahad": 4572,
      "afhayeen": 4573,
      "isagoona": 4574,
      "isaguna": 4575,
      "dadaalka": 4576,
      "xariir": 4577,
      "##sigii": 4578,
      "duulista": 4579,
      "kobc": 4580,
      "oromada": 4581,
      "doonayay": 4582,
      "sand": 4583,
      "dhammaantood": 4584,
      "qarn": 4585,
      "hayey": 4586,
      "biden": 4587,
      "saxeex": 4588,
      "##ilka": 4589,
      "xaaskiisa": 4590,
      "ub": 4591,
      "gaaraan": 4592,
      "qaxooti": 4593,
      "waraaq": 4594,
      "daayay": 4595,
      "quruxda": 4596,
      "##itir": 4597,
      "sacad": 4598,
      "nadiif": 4599,
      "imtixaanka": 4600,
      "filim": 4601,
      "bogga": 4602,
      "turjum": 4603,
      "iskaashi": 4604,
      "##adaada": 4605,
      "qorsheysan": 4606,
      "aakh": 4607,
      "qaadista": 4608,
      "gaba": 4609,
      "farabadan": 4610,
      "hogaaminayo": 4611,
      "sena": 4612,
      "muxam": 4613,
      "bey": 4614,
      "bartilmaam": 4615,
      "hogaamiyaha": 4616,
      "maraakiib": 4617,
      "demb": 4618,
      "2aad": 4619,
      "ig": 4620,
      "qabanayo": 4621,
      "ogyahay": 4622,
      "##qaaday": 4623,
      "xaar": 4624,
      "kiiska": 4625,
      "raadin": 4626,
      "##igeeda": 4627,
      "##naha": 4628,
      "saacado": 4629,
      "wakhtiga": 4630,
      "fatah": 4631,
      "##aamin": 4632,
      "akistan": 4633,
      "##eynaya": 4634,
      "binu": 4635,
      "##eecada": 4636,
      "ogaado": 4637,
      "##shaq": 4638,
      "gabay": 4639,
      "ool": 4640,
      "aus": 4641,
      "balaadhan": 4642,
      "##aynaya": 4643,
      "qow": 4644,
      "illaah": 4645,
      "eedeysan": 4646,
      "xur": 4647,
      "saameynta": 4648,
      "macalim": 4649,
      "malaay": 4650,
      "aamus": 4651,
      "qurba": 4652,
      "xiliga": 4653,
      "abu": 4654,
      "jubbada": 4655,
      "siyaasiga": 4656,
      "labadan": 4657,
      "wadatashiga": 4658,
      "farriin": 4659,
      "##lion": 4660,
      "daay": 4661,
      "hadaf": 4662,
      "dayn": 4663,
      "mayd": 4664,
      "yidhaahdo": 4665,
      "aasay": 4666,
      "baxdo": 4667,
      "##ome": 4668,
      "dirir": 4669,
      "cadaaladda": 4670,
      "qeybgal": 4671,
      "##hii": 4672,
      "walaalaha": 4673,
      "ac": 4674,
      "qaybgalay": 4675,
      "##ree": 4676,
      "##oola": 4677,
      "baladweyne": 4678,
      "imanaya": 4679,
      "eebbe": 4680,
      "labaatan": 4681,
      "fadhiis": 4682,
      "ixtir": 4683,
      "##utub": 4684,
      "casilay": 4685,
      "halbeeg": 4686,
      "xildhibaanka": 4687,
      "fashilm": 4688,
      "qoysas": 4689,
      "ahmiy": 4690,
      "kumanaan": 4691,
      "gaarin": 4692,
      "##ester": 4693,
      "dhash": 4694,
      "sannadka": 4695,
      "lagala": 4696,
      "rasuulka": 4697,
      "##aysta": 4698,
      "qalb": 4699,
      "yariisow": 4700,
      "##arta": 4701,
      "feker": 4702,
      "caalamku": 4703,
      "maalgashiga": 4704,
      "##tiina": 4705,
      "kaaga": 4706,
      "qoro": 4707,
      "milat": 4708,
      "noolaa": 4709,
      "qandar": 4710,
      "sidaan": 4711,
      "cida": 4712,
      "ca": 4713,
      "dhacda": 4714,
      "##wali": 4715,
      "ayadoo": 4716,
      "magaaladaasi": 4717,
      "sayl": 4718,
      "##daas": 4719,
      "daryeelka": 4720,
      "shaqsi": 4721,
      "yimaad": 4722,
      "##oose": 4723,
      "##ess": 4724,
      "ahlus": 4725,
      "##aanad": 4726,
      "eray": 4727,
      "halista": 4728,
      "seex": 4729,
      "ilaalin": 4730,
      "nabiga": 4731,
      "diiradda": 4732,
      "hadba": 4733,
      "ddsi": 4734,
      "mab": 4735,
      "arkaa": 4736,
      "gaara": 4737,
      "muuqan": 4738,
      "dheeri": 4739,
      "galmada": 4740,
      "##danka": 4741,
      "##eystaan": 4742,
      "nig": 4743,
      "duulimaad": 4744,
      "cabdullahi": 4745,
      "dub": 4746,
      "daqiiqo": 4747,
      "lee": 4748,
      "duuf": 4749,
      "caqabadaha": 4750,
      "laal": 4751,
      "qandaraas": 4752,
      "maarmaan": 4753,
      "bakool": 4754,
      "bulshadu": 4755,
      "wacan": 4756,
      "dhexaad": 4757,
      "somalida": 4758,
      "qos": 4759,
      "##ja": 4760,
      "baro": 4761,
      "ciddii": 4762,
      "yeelatay": 4763,
      "##iro": 4764,
      "tijaab": 4765,
      "jees": 4766,
      "##eysato": 4767,
      "xaadir": 4768,
      "calanka": 4769,
      "saacadood": 4770,
      "hirgelinta": 4771,
      "kulmaan": 4772,
      "##yaa": 4773,
      "qarsoon": 4774,
      "##news": 4775,
      "##eedii": 4776,
      "geeriyood": 4777,
      "ri": 4778,
      "dher": 4779,
      "shirkaasi": 4780,
      "tigray": 4781,
      "kubada": 4782,
      "real": 4783,
      "##cay": 4784,
      "cib": 4785,
      "horreeyey": 4786,
      "ansixiyay": 4787,
      "koron": 4788,
      "kari": 4789,
      "dekadda": 4790,
      "##sade": 4791,
      "##kmg": 4792,
      "saarnaa": 4793,
      "qaadayo": 4794,
      "waddada": 4795,
      "abaalmar": 4796,
      "togdheer": 4797,
      "naas": 4798,
      "##raan": 4799,
      "codbix": 4800,
      "nabadeed": 4801,
      "sheegi": 4802,
      "dagaalamay": 4803,
      "##bitaalka": 4804,
      "guddoomiyihii": 4805,
      "##dish": 4806,
      "##ers": 4807,
      "tayada": 4808,
      "saxaafada": 4809,
      "##tidii": 4810,
      "dhaxeysa": 4811,
      "waax": 4812,
      "cayn": 4813,
      "taaban": 4814,
      "##mka": 4815,
      "furmayaan": 4816,
      "xilligaas": 4817,
      "dareenka": 4818,
      "aqbali": 4819,
      "dabka": 4820,
      "##mayo": 4821,
      "dhakhaat": 4822,
      "dhamaantood": 4823,
      "bilyan": 4824,
      "bilaabeen": 4825,
      "yeedhay": 4826,
      "sheegatay": 4827,
      "toogtay": 4828,
      "abuurka": 4829,
      "sababaha": 4830,
      "webs": 4831,
      "sheeko": 4832,
      "qabsan": 4833,
      "hadlaan": 4834,
      "saxiixay": 4835,
      "ajaan": 4836,
      "weerarkan": 4837,
      "billaab": 4838,
      "waramay": 4839,
      "kastoo": 4840,
      "dagaallo": 4841,
      "jaamacadaha": 4842,
      "noocan": 4843,
      "xilkii": 4844,
      "wehl": 4845,
      "dambeeya": 4846,
      "70": 4847,
      "##one": 4848,
      "mashaariicda": 4849,
      "##ria": 4850,
      "jaaliyadda": 4851,
      "badd": 4852,
      "##eynin": 4853,
      "tanaasul": 4854,
      "hadlayey": 4855,
      "ru": 4856,
      "##ty": 4857,
      "xayaw": 4858,
      "bayaan": 4859,
      "artic": 4860,
      "jamhuuriyada": 4861,
      "oon": 4862,
      "subaxnimo": 4863,
      "laaban": 4864,
      "##uusan": 4865,
      "mustaqbal": 4866,
      "##eyaal": 4867,
      "hoggaan": 4868,
      "january": 4869,
      "waqtigii": 4870,
      "anigoo": 4871,
      "nabadgal": 4872,
      "muujiyey": 4873,
      "laha": 4874,
      "##ibaan": 4875,
      "niman": 4876,
      "mis": 4877,
      "dhageystay": 4878,
      "dadkaas": 4879,
      "qabay": 4880,
      "asxaab": 4881,
      "##asiir": 4882,
      "macluumaad": 4883,
      "looma": 4884,
      "haa": 4885,
      "dhaadh": 4886,
      "beri": 4887,
      "ujeedka": 4888,
      "dalxiiska": 4889,
      "adigu": 4890,
      "cqaadir": 4891,
      "hordha": 4892,
      "xilligan": 4893,
      "sain": 4894,
      "##haas": 4895,
      "##heeda": 4896,
      "oktoob": 4897,
      "80": 4898,
      "xiisad": 4899,
      "maleeshiyaadka": 4900,
      "##kor": 4901,
      "nal": 4902,
      "buun": 4903,
      "##yadooda": 4904,
      "muujiyeen": 4905,
      "furitaanka": 4906,
      "musharixiinta": 4907,
      "qaadato": 4908,
      "300": 4909,
      "yaan": 4910,
      "mara": 4911,
      "daraadeed": 4912,
      "qiyaastii": 4913,
      "horeeyey": 4914,
      "celiyey": 4915,
      "90": 4916,
      "gacm": 4917,
      "musharrax": 4918,
      "baasab": 4919,
      "darrada": 4920,
      "wadaad": 4921,
      "##iyaal": 4922,
      "##keedii": 4923,
      "tilmaan": 4924,
      "baarista": 4925,
      "muhaajir": 4926,
      "warsax": 4927,
      "ciqaab": 4928,
      "khibr": 4929,
      "gudboon": 4930,
      "##eera": 4931,
      "six": 4932,
      "magaalladda": 4933,
      "saraakiish": 4934,
      "qowmiy": 4935,
      "gebi": 4936,
      "mukhtaar": 4937,
      "koonfureed": 4938,
      "1991": 4939,
      "bedelay": 4940,
      "dilo": 4941,
      "dalban": 4942,
      "dagaalo": 4943,
      "berberanews": 4944,
      "##uth": 4945,
      "cunt": 4946,
      "doorashooyin": 4947,
      "##afka": 4948,
      "ganacsato": 4949,
      "tuulada": 4950,
      "kaah": 4951,
      "kalfadh": 4952,
      "horjeedo": 4953,
      "##alaysan": 4954,
      "qeybgalay": 4955,
      "maj": 4956,
      "nic": 4957,
      "suugaanta": 4958,
      "isbahay": 4959,
      "casriga": 4960,
      "##for": 4961,
      "daayo": 4962,
      "cadow": 4963,
      "xall": 4964,
      "magan": 4965,
      "good": 4966,
      "galabta": 4967,
      "met": 4968,
      "maxaabiista": 4969,
      "wareejin": 4970,
      "dhadh": 4971,
      "hoggaamiye": 4972,
      "abaarta": 4973,
      "snm": 4974,
      "ere": 4975,
      "##ague": 4976,
      "##aarada": 4977,
      "asal": 4978,
      "caabud": 4979,
      "##laa": 4980,
      "qun": 4981,
      "maaliyada": 4982,
      "##kiina": 4983,
      "wadi": 4984,
      "inagu": 4985,
      "##eeysay": 4986,
      "##celona": 4987,
      "dalkeena": 4988,
      "kartid": 4989,
      "baal": 4990,
      "tol": 4991,
      "##baal": 4992,
      "maayo": 4993,
      "ummad": 4994,
      "arsen": 4995,
      "qu": 4996,
      "arkeen": 4997,
      "sameysay": 4998,
      "furo": 4999,
      "maro": 5000,
      "##kariin": 5001,
      "gudahood": 5002,
      "noogu": 5003,
      "qaata": 5004,
      "waraysi": 5005,
      "geeriyootay": 5006,
      "wareej": 5007,
      "booqash": 5008,
      "caga": 5009,
      "xalaal": 5010,
      "argagixiso": 5011,
      "asl": 5012,
      "##uss": 5013,
      "kaf": 5014,
      "isticmaali": 5015,
      "qalal": 5016,
      "league": 5017,
      "hadalkii": 5018,
      "baahanyahay": 5019,
      "howlgallo": 5020,
      "maada": 5021,
      "##sanaya": 5022,
      "barcelona": 5023,
      "samir": 5024,
      "rabb": 5025,
      "kenyatta": 5026,
      "##leh": 5027,
      "##duuc": 5028,
      "cidna": 5029,
      "mowqif": 5030,
      "##eysto": 5031,
      "##aamada": 5032,
      "john": 5033,
      "qabsadeen": 5034,
      "faray": 5035,
      "khasaar": 5036,
      "##iiqay": 5037,
      "welig": 5038,
      "qardho": 5039,
      "beesh": 5040,
      "dowladdii": 5041,
      "lii": 5042,
      "dilalka": 5043,
      "tayo": 5044,
      "heyadda": 5045,
      "nugaal": 5046,
      "##ry": 5047,
      "militariga": 5048,
      "adeer": 5049,
      "intaan": 5050,
      "sheegey": 5051,
      "qaan": 5052,
      "shirkaas": 5053,
      "goo": 5054,
      "ummada": 5055,
      "saalax": 5056,
      "dhinacyo": 5057,
      "risaala": 5058,
      "ogaadeen": 5059,
      "nabada": 5060,
      "hortago": 5061,
      "aroor": 5062,
      "cabdulaahi": 5063,
      "salaysan": 5064,
      "kuugu": 5065,
      "ahaana": 5066,
      "inaanay": 5067,
      "##sea": 5068,
      "buuxa": 5069,
      "guush": 5070,
      "##iimka": 5071,
      "tihiin": 5072,
      "rogay": 5073,
      "##chester": 5074,
      "ceer": 5075,
      "mudada": 5076,
      "##siyo": 5077,
      "indho": 5078,
      "sheegayo": 5079,
      "ed": 5080,
      "qaybgal": 5081,
      "dagaalada": 5082,
      "weydiiyey": 5083,
      "meer": 5084,
      "sharafta": 5085,
      "abuukar": 5086,
      "meh": 5087,
      "york": 5088,
      "cusboon": 5089,
      "##aden": 5090,
      "##era": 5091,
      "shuruud": 5092,
      "##ea": 5093,
      "burun": 5094,
      "xukuumad": 5095,
      "yo": 5096,
      "##liy": 5097,
      "jidhka": 5098,
      "cabdulle": 5099,
      "maarso": 5100,
      "mahadceliyay": 5101,
      "##she": 5102,
      "toogasho": 5103,
      "##yadu": 5104,
      "yuh": 5105,
      "tacliinta": 5106,
      "isg": 5107,
      "eegtay": 5108,
      "khatarta": 5109,
      "dadweyne": 5110,
      "danjiraha": 5111,
      "cabdicasiis": 5112,
      "rar": 5113,
      "faro": 5114,
      "##iisha": 5115,
      "##oodo": 5116,
      "milatariga": 5117,
      "naaf": 5118,
      "##50": 5119,
      "waare": 5120,
      "##eysi": 5121,
      "xiriirta": 5122,
      "hayaddaha": 5123,
      "hubaysan": 5124,
      "murashax": 5125,
      "sannadood": 5126,
      "siisay": 5127,
      "hiil": 5128,
      "dhux": 5129,
      "xilalka": 5130,
      "furqaan": 5131,
      "dhabar": 5132,
      "wararku": 5133,
      "qaldan": 5134,
      "geliyey": 5135,
      "adkeeyay": 5136,
      "nux": 5137,
      "sayn": 5138,
      "##ayska": 5139,
      "weerarkaasi": 5140,
      "##hoodle": 5141,
      "##tt": 5142,
      "cawad": 5143,
      "adda": 5144,
      "dooday": 5145,
      "salaam": 5146,
      "dhigaan": 5147,
      "markasta": 5148,
      "cabb": 5149,
      "baraar": 5150,
      "cabdirisaaq": 5151,
      "meeshii": 5152,
      "qareen": 5153,
      "dharka": 5154,
      "nabadgelyada": 5155,
      "qarsoo": 5156,
      "sugida": 5157,
      "cashuur": 5158,
      "xambaar": 5159,
      "link": 5160,
      "tlf": 5161,
      "shaacin": 5162,
      "##iiga": 5163,
      "colaadda": 5164,
      "kulmi": 5165,
      "manchester": 5166,
      "badbaaday": 5167,
      "taak": 5168,
      "saxda": 5169,
      "xann": 5170,
      "farsamo": 5171,
      "##bah": 5172,
      "samaysay": 5173,
      "nuux": 5174,
      "lagana": 5175,
      "buuhoodle": 5176,
      "buugga": 5177,
      "##ase": 5178,
      "macquul": 5179,
      "adeegga": 5180,
      "insaanka": 5181,
      "miino": 5182,
      "oktoobar": 5183,
      "maamulkaasi": 5184,
      "kasii": 5185,
      "geeyo": 5186,
      "yam": 5187,
      "##eynayaan": 5188,
      "obama": 5189,
      "caddaalad": 5190,
      "jaamacada": 5191,
      "xoogag": 5192,
      "hotelka": 5193,
      "##19": 5194,
      "##tiis": 5195,
      "yaryar": 5196,
      "jad": 5197,
      "degay": 5198,
      "##aashu": 5199,
      "hid": 5200,
      "##oomin": 5201,
      "muhiimadda": 5202,
      "sawirada": 5203,
      "daaf": 5204,
      "cadaadis": 5205,
      "lafta": 5206,
      "maadama": 5207,
      "adeega": 5208,
      "sanadihii": 5209,
      "dhammaaday": 5210,
      "kitaabka": 5211,
      "kamida": 5212,
      "baaritaanka": 5213,
      "bukaan": 5214,
      "arimo": 5215,
      "samatar": 5216,
      "fanka": 5217,
      "muqdish": 5218,
      "nabadsug": 5219,
      "##aadi": 5220,
      "##eysteen": 5221,
      "sugnaayeen": 5222,
      "quraan": 5223,
      "adkaa": 5224,
      "bartiisa": 5225,
      "gabi": 5226,
      "dhankiisa": 5227,
      "haweeney": 5228,
      "##adiid": 5229,
      "bulshadda": 5230,
      "warbixintan": 5231,
      "##ort": 5232,
      "maamuus": 5233,
      "afarta": 5234,
      "shabab": 5235,
      "dhexdooda": 5236,
      "shuruucda": 5237,
      "masiix": 5238,
      "sayid": 5239,
      "dhisi": 5240,
      "##ayda": 5241,
      "talin": 5242,
      "abdi": 5243,
      "baaritaano": 5244,
      "somaliyeed": 5245,
      "##ong": 5246,
      "bahda": 5247,
      "##nn": 5248,
      "talaabo": 5249,
      "afl": 5250,
      "jeeday": 5251,
      "aduun": 5252,
      "xirfad": 5253,
      "rabbiga": 5254,
      "fiq": 5255,
      "ciiddanka": 5256,
      "laakiinse": 5257,
      "nabadoon": 5258,
      "mahadnaq": 5259,
      "buul": 5260,
      "baahsan": 5261,
      "warsaxaaf": 5262,
      "musha": 5263,
      "sideed": 5264,
      "diideen": 5265,
      "baxsaday": 5266,
      "qoraalkan": 5267,
      "guddiyada": 5268,
      "asaas": 5269,
      "suxufiyiinta": 5270,
      "hawsha": 5271,
      "##aynay": 5272,
      "##maliland": 5273,
      "qurx": 5274,
      "burundi": 5275,
      "shanta": 5276,
      "faragel": 5277,
      "lu": 5278,
      "qorsheynta": 5279,
      "2010": 5280,
      "##badan": 5281,
      "guuleysan": 5282,
      "cimil": 5283,
      "xabsiyada": 5284,
      "xafiisyada": 5285,
      "degaanada": 5286,
      "raggii": 5287,
      "##adiisii": 5288,
      "dhah": 5289,
      "jiida": 5290,
      "hoggaamin": 5291,
      "xiisada": 5292,
      "rotectedmuqdisho": 5293,
      "lamaan": 5294,
      "danbayn": 5295,
      "##addaas": 5296,
      "komishanka": 5297,
      "wasiiradda": 5298,
      "chel": 5299,
      "dariiq": 5300,
      "be": 5301,
      "muwaadiniin": 5302,
      "dadkan": 5303,
      "adeegsado": 5304,
      "waajibaadka": 5305,
      "abshir": 5306,
      "##ian": 5307,
      "beeleed": 5308,
      "nololeed": 5309,
      "daaq": 5310,
      "jasiir": 5311,
      "##ihin": 5312,
      "##kaanka": 5313,
      "dhihi": 5314,
      "midkood": 5315,
      "hayb": 5316,
      "hiig": 5317,
      "tilmaameen": 5318,
      "##gaas": 5319,
      "yus": 5320,
      "dhisayo": 5321,
      "##ahu": 5322,
      "taageerayaasha": 5323,
      "qaas": 5324,
      "arintan": 5325,
      "dowlaha": 5326,
      "gog": 5327,
      "habar": 5328,
      "khadar": 5329,
      "##ayuu": 5330,
      "##waxaan": 5331,
      "ciyaareed": 5332,
      "dhaxaysa": 5333,
      "istaagay": 5334,
      "##ie": 5335,
      "waxqabadka": 5336,
      "shaqooyinka": 5337,
      "roobab": 5338,
      "##cr": 5339,
      "jaceyl": 5340,
      "dimoq": 5341,
      "badeed": 5342,
      "##hat": 5343,
      "xasill": 5344,
      "bat": 5345,
      "general": 5346,
      "mw": 5347,
      "##eyntii": 5348,
      "khalii": 5349,
      "guryah": 5350,
      "haystay": 5351,
      "soon": 5352,
      "qortay": 5353,
      "tuuray": 5354,
      "kuwaa": 5355,
      "gro": 5356,
      "qoysaska": 5357,
      "runta": 5358,
      "iisul": 5359,
      "aroos": 5360,
      "qall": 5361,
      "tik": 5362,
      "ciidankii": 5363,
      "hogaamin": 5364,
      "gaarsiiyay": 5365,
      "dhaawacyo": 5366,
      "##10": 5367,
      "falalka": 5368,
      "xigeenkii": 5369,
      "culim": 5370,
      "tamarta": 5371,
      "chelsea": 5372,
      "dhakhtar": 5373,
      "daraw": 5374,
      "karno": 5375,
      "markaad": 5376,
      "keena": 5377,
      "libaax": 5378,
      "od": 5379,
      "dartay": 5380,
      "iyadu": 5381,
      "casri": 5382,
      "baaris": 5383,
      "dayay": 5384,
      "##inimo": 5385,
      "xafladda": 5386,
      "##siiyey": 5387,
      "dugsi": 5388,
      "saadaal": 5389,
      "qabiilka": 5390,
      "##axay": 5391,
      "##siyad": 5392,
      "cadda": 5393,
      "samaf": 5394,
      "##aano": 5395,
      "mudahar": 5396,
      "hooyada": 5397,
      "jib": 5398,
      "dilkii": 5399,
      "sahlan": 5400,
      "dusha": 5401,
      "qabato": 5402,
      "ke": 5403,
      "qarsoodi": 5404,
      "annaga": 5405,
      "kuwani": 5406,
      "masjidka": 5407,
      "hadday": 5408,
      "##aayada": 5409,
      "golayaasha": 5410,
      "saq": 5411,
      "jiritaanka": 5412,
      "city": 5413,
      "##alia": 5414,
      "uruur": 5415,
      "joojiyay": 5416,
      "##eyay": 5417,
      "##uters": 5418,
      "dhuux": 5419,
      "xeerarka": 5420,
      "##mark": 5421,
      "qadd": 5422,
      "nigeria": 5423,
      "muslimiin": 5424,
      "ow": 5425,
      "aag": 5426,
      "himil": 5427,
      "dhexdeeda": 5428,
      "sigaar": 5429,
      "warbixiyay": 5430,
      "tuhun": 5431,
      "karnaa": 5432,
      "##tul": 5433,
      "dhagayso": 5434,
      "jimcaha": 5435,
      "dhankooda": 5436,
      "dhiigga": 5437,
      "arsenal": 5438,
      "heb": 5439,
      "arrintaan": 5440,
      "##iile": 5441,
      "qaraab": 5442,
      "qasab": 5443,
      "dhee": 5444,
      "horumarineed": 5445,
      "yiraah": 5446,
      "wareega": 5447,
      "qoraa": 5448,
      "##fi": 5449,
      "ja": 5450,
      "amiir": 5451,
      "umm": 5452,
      "hu": 5453,
      "saamaynta": 5454,
      "##ahii": 5455,
      "##ilay": 5456,
      "hayeeshee": 5457,
      "##ial": 5458,
      "maalmahan": 5459,
      "2009": 5460,
      "##iban": 5461,
      "faroole": 5462,
      "woq": 5463,
      "##eej": 5464,
      "hawlgalka": 5465,
      "juun": 5466,
      "mucaaridka": 5467,
      "taf": 5468,
      "keyd": 5469,
      "hayeen": 5470,
      "xildhibaanno": 5471,
      "talooyin": 5472,
      "inan": 5473,
      "tagi": 5474,
      "barakacay": 5475,
      "masaajid": 5476,
      "galiyay": 5477,
      "qabad": 5478,
      "dhaqdhaqaaqa": 5479,
      "##ica": 5480,
      "goluhu": 5481,
      "horaysay": 5482,
      "gudbiyo": 5483,
      "shakhsiy": 5484,
      "dacwadda": 5485,
      "jiid": 5486,
      "jeediyeen": 5487,
      "##gen": 5488,
      "##aysid": 5489,
      "##tarka": 5490,
      "socdaa": 5491,
      "##uudda": 5492,
      "##qar": 5493,
      "gaarsiin": 5494,
      "dulqaad": 5495,
      "wargel": 5496,
      "jeex": 5497,
      "doontaan": 5498,
      "jeedinaya": 5499,
      "xaawo": 5500,
      "xaga": 5501,
      "##adiis": 5502,
      "##tiisu": 5503,
      "##dhi": 5504,
      "dhacdooyinka": 5505,
      "bilaw": 5506,
      "aragto": 5507,
      "sanadkaan": 5508,
      "maqnaa": 5509,
      "guddoon": 5510,
      "##kac": 5511,
      "gurigiisa": 5512,
      "diro": 5513,
      "woqooy": 5514,
      "shacabku": 5515,
      "malaayiin": 5516,
      "duhurnimo": 5517,
      "uhur": 5518,
      "##daysan": 5519,
      "reuters": 5520,
      "warramay": 5521,
      "##ion": 5522,
      "##adeedka": 5523,
      "##aaye": 5524,
      "tartam": 5525,
      "geeddi": 5526,
      "yada": 5527,
      "saaxil": 5528,
      "ayaga": 5529,
      "kast": 5530,
      "deriska": 5531,
      "qaranku": 5532,
      "raag": 5533,
      "khaas": 5534,
      "harge": 5535,
      "tarjum": 5536,
      "masiib": 5537,
      "baash": 5538,
      "khadka": 5539,
      "wariyaha": 5540,
      "daabacay": 5541,
      "madaxdii": 5542,
      "##igal": 5543,
      "taga": 5544,
      "qaadin": 5545,
      "weynaa": 5546,
      "##gam": 5547,
      "kordhay": 5548,
      "suub": 5549,
      "xiddiga": 5550,
      "cadowga": 5551,
      "bandhigtay": 5552,
      "warbaahin": 5553,
      "illaahay": 5554,
      "suuragal": 5555,
      "muddadii": 5556,
      "##ern": 5557,
      "wadani": 5558,
      "qaabkii": 5559,
      "qaybtii": 5560,
      "haddaan": 5561,
      "dayax": 5562,
      "##maday": 5563,
      "mudadii": 5564,
      "bixiso": 5565,
      "asluubta": 5566,
      "hob": 5567,
      "##dig": 5568,
      "##ari": 5569,
      "barwaaqo": 5570,
      "furtay": 5571,
      "##kada": 5572,
      "##aamaha": 5573,
      "dabay": 5574,
      "xfs": 5575,
      "##aweel": 5576,
      "khaliijka": 5577,
      "bl": 5578,
      "janaayo": 5579,
      "diyaariyay": 5580,
      "telefish": 5581,
      "raadinta": 5582,
      "austr": 5583,
      "waxna": 5584,
      "##haasi": 5585,
      "musiib": 5586,
      "dhaxeeyay": 5587,
      "dhe": 5588,
      "naw": 5589,
      "netw": 5590,
      "hoob": 5591,
      "##xo": 5592,
      "minn": 5593,
      "rax": 5594,
      "leex": 5595,
      "laabto": 5596,
      "khayraadka": 5597,
      "aqoonsi": 5598,
      "dalab": 5599,
      "maleeshiyada": 5600,
      "kay": 5601,
      "##tanb": 5602,
      "bartilmaameed": 5603,
      "wadashaq": 5604,
      "taagnaa": 5605,
      "booqashada": 5606,
      "guryo": 5607,
      "xukuntay": 5608,
      "nadaaf": 5609,
      "yahan": 5610,
      "xeryaha": 5611,
      "labad": 5612,
      "hij": 5613,
      "cutub": 5614,
      "##aamulka": 5615,
      "gudihiisa": 5616,
      "siiso": 5617,
      "udub": 5618,
      "goordhow": 5619,
      "yusuf": 5620,
      "baahi": 5621,
      "geystaan": 5622,
      "dabiiciga": 5623,
      "kulankaasi": 5624,
      "baadi": 5625,
      "february": 5626,
      "dakhliga": 5627,
      "indi": 5628,
      "indh": 5629,
      "qaarna": 5630,
      "aragtay": 5631,
      "xiro": 5632,
      "fars": 5633,
      "fanaan": 5634,
      "sicir": 5635,
      "olole": 5636,
      "siduu": 5637,
      "shaqeynta": 5638,
      "##ext": 5639,
      "muhii": 5640,
      "hadhay": 5641,
      "ciidamadda": 5642,
      "iiga": 5643,
      "buugaag": 5644,
      "dagaallada": 5645,
      "##taagan": 5646,
      "amarka": 5647,
      "raashin": 5648,
      "garabka": 5649,
      "dadban": 5650,
      "saarayo": 5651,
      "idil": 5652,
      "intuu": 5653,
      "fadhiga": 5654,
      "ser": 5655,
      "##eysta": 5656,
      "balcad": 5657,
      "dabaq": 5658,
      "##igana": 5659,
      "sta": 5660,
      "##anaha": 5661,
      "madaxweynayaasha": 5662,
      "dhuu": 5663,
      "##erland": 5664,
      "cabdalla": 5665,
      "umada": 5666,
      "hadallo": 5667,
      "buuq": 5668,
      "##esota": 5669,
      "istanb": 5670,
      "helnay": 5671,
      "macd": 5672,
      "weyne": 5673,
      "yeelato": 5674,
      "maya": 5675,
      "##eem": 5676,
      "suurtagal": 5677,
      "joojinta": 5678,
      "xuduudaha": 5679,
      "##nab": 5680,
      "bilaaban": 5681,
      "cararay": 5682,
      "##ck": 5683,
      "##shahay": 5684,
      "##11": 5685,
      "khaat": 5686,
      "xoojiyo": 5687,
      "iyagana": 5688,
      "maxkam": 5689,
      "heshiiyay": 5690,
      "cunaqabat": 5691,
      "khilaafaadka": 5692,
      "qis": 5693,
      "jah": 5694,
      "lier": 5695,
      "ballaadhan": 5696,
      "guulo": 5697,
      "##aadiga": 5698,
      "cs": 5699,
      "rabay": 5700,
      "jeneraal": 5701,
      "isbadal": 5702,
      "400": 5703,
      "dano": 5704,
      "##aduna": 5705,
      "ogaden": 5706,
      "32": 5707,
      "maryan": 5708,
      "boorama": 5709,
      "hogaan": 5710,
      "##embar": 5711,
      "##iisan": 5712,
      "roobow": 5713,
      "##low": 5714,
      "food": 5715,
      "goboll": 5716,
      "wabiga": 5717,
      "muslimka": 5718,
      "sacuudi": 5719,
      "weerarkaas": 5720,
      "cidii": 5721,
      "qaraxan": 5722,
      "walaalo": 5723,
      "ceerig": 5724,
      "yab": 5725,
      "hagaag": 5726,
      "euro": 5727,
      "tun": 5728,
      "dhiiri": 5729,
      "##iday": 5730,
      "kastaa": 5731,
      "dhaf": 5732,
      "siinayo": 5733,
      "maamulkaas": 5734,
      "waayeel": 5735,
      "darada": 5736,
      "degmadda": 5737,
      "minnesota": 5738,
      "kowaad": 5739,
      "madaarka": 5740,
      "jubba": 5741,
      "dishay": 5742,
      "xireen": 5743,
      "##ishu": 5744,
      "tow": 5745,
      "fahmi": 5746,
      "##hoose": 5747,
      "hufan": 5748,
      "baahnaa": 5749,
      "dardaarmay": 5750,
      "mamnuucay": 5751,
      "fashilmay": 5752,
      "meher": 5753,
      "kaashan": 5754,
      "million": 5755,
      "toona": 5756,
      "1960": 5757,
      "masuuliyad": 5758,
      "quns": 5759,
      "wadaagaan": 5760,
      "tat": 5761,
      "ciidamadu": 5762,
      "##daasi": 5763,
      "waxyaabihii": 5764,
      "hargeisa": 5765,
      "baadhitaan": 5766,
      "kil": 5767,
      "##guna": 5768,
      "##koo": 5769,
      "leeg": 5770,
      "doonka": 5771,
      "kulamada": 5772,
      "##gaan": 5773,
      "moo": 5774,
      "daahfur": 5775,
      "cin": 5776,
      "qabanq": 5777,
      "hantid": 5778,
      "##qor": 5779,
      "ganacsade": 5780,
      "dadaallada": 5781,
      "##oogle": 5782,
      "aaney": 5783,
      "grou": 5784,
      "slo": 5785,
      "dhigto": 5786,
      "ms": 5787,
      "diim": 5788,
      "jal": 5789,
      "##gana": 5790,
      "sabti": 5791,
      "tagtay": 5792,
      "os": 5793,
      "jacaylka": 5794,
      "warkan": 5795,
      "magaalooyin": 5796,
      "##ment": 5797,
      "nafaq": 5798,
      "##eysey": 5799,
      "mel": 5800,
      "hadduu": 5801,
      "qaarada": 5802,
      "##aansho": 5803,
      "arinta": 5804,
      "diyaarada": 5805,
      "hana": 5806,
      "gabdh": 5807,
      "lierool": 5808,
      "dhalashada": 5809,
      "ismiid": 5810,
      "soomaliyeed": 5811,
      "hee": 5812,
      "maraya": 5813,
      "qub": 5814,
      "faall": 5815,
      "damacsan": 5816,
      "raaciyey": 5817,
      "##soc": 5818,
      "suuqyada": 5819,
      "xagjir": 5820,
      "##ade": 5821,
      "kheyraadka": 5822,
      "rac": 5823,
      "dhigaya": 5824,
      "macdanta": 5825,
      "xiligii": 5826,
      "banaanka": 5827,
      "cabasho": 5828,
      "ganaax": 5829,
      "libya": 5830,
      "fr": 5831,
      "##weynta": 5832,
      "sol": 5833,
      "aaday": 5834,
      "ciidda": 5835,
      "intaba": 5836,
      "faaiido": 5837,
      "turkey": 5838,
      "isticmaala": 5839,
      "##ihiis": 5840,
      "cim": 5841,
      "rabto": 5842,
      "farsamada": 5843,
      "anaga": 5844,
      "caddaaladda": 5845,
      "dirayaa": 5846,
      "isbuuc": 5847,
      "alla": 5848,
      "qaadashada": 5849,
      "axad": 5850,
      "fiqi": 5851,
      "##fir": 5852,
      "##adishu": 5853,
      "laguma": 5854,
      "noqonayaa": 5855,
      "raq": 5856,
      "gudbay": 5857,
      "taageeray": 5858,
      "caqli": 5859,
      "ahlusun": 5860,
      "xadd": 5861,
      "xigta": 5862,
      "miisaanka": 5863,
      "uhuru": 5864,
      "maasuqa": 5865,
      "ciyaari": 5866,
      "wateen": 5867,
      "dayactir": 5868,
      "dhismay": 5869,
      "todobaadkii": 5870,
      "hogaamiye": 5871,
      "aadam": 5872,
      "rumaysan": 5873,
      "howsh": 5874,
      "jeedaan": 5875,
      "baaqayaa": 5876,
      "madaxw": 5877,
      "ciyaaryahan": 5878,
      "shaqsiyaad": 5879,
      "shaqadii": 5880,
      "ek": 5881,
      "baanka": 5882,
      "sod": 5883,
      "sareeya": 5884,
      "##bab": 5885,
      "dis": 5886,
      "waxtar": 5887,
      "gudbiyeen": 5888,
      "kim": 5889,
      "gobolkaasi": 5890,
      "odayaal": 5891,
      "xajka": 5892,
      "duba": 5893,
      "dowladnimada": 5894,
      "gr": 5895,
      "kaahin": 5896,
      "ansha": 5897,
      "ogaal": 5898,
      "ceerigaabo": 5899,
      "mudanayaasha": 5900,
      "33": 5901,
      "##kil": 5902,
      "agaasime": 5903,
      "xalka": 5904,
      "##sanayaan": 5905,
      "network": 5906,
      "aqlab": 5907,
      "heyadaha": 5908,
      "##sami": 5909,
      "##intii": 5910,
      "carabiya": 5911,
      "qaraar": 5912,
      "##ress": 5913,
      "kub": 5914,
      "aabb": 5915,
      "##ard": 5916,
      "sanadood": 5917,
      "##mis": 5918,
      "madaxbanaan": 5919,
      "gudbiyey": 5920,
      "cabash": 5921,
      "doonnaa": 5922,
      "##sid": 5923,
      "abr": 5924,
      "##wa": 5925,
      "dhibka": 5926,
      "##aarida": 5927,
      "xariga": 5928,
      "fuliyo": 5929,
      "##eedh": 5930,
      "3aad": 5931,
      "barto": 5932,
      "inn": 5933,
      "amaba": 5934,
      "cabdisha": 5935,
      "lid": 5936,
      "arintaas": 5937,
      "luul": 5938,
      "45": 5939,
      "mul": 5940,
      "##ootiga": 5941,
      "ilmo": 5942,
      "heysta": 5943,
      "##tinimo": 5944,
      "xooj": 5945,
      "degen": 5946,
      "wakhtigii": 5947,
      "saacadihii": 5948,
      "##ten": 5949,
      "australia": 5950,
      "tiirsan": 5951,
      "mideysan": 5952,
      "shirweynaha": 5953,
      "##aayad": 5954,
      "gul": 5955,
      "badanaa": 5956,
      "mareeg": 5957,
      "##kara": 5958,
      "gubay": 5959,
      "muuqatay": 5960,
      "##amka": 5961,
      "finland": 5962,
      "wasaarihii": 5963,
      "##tuna": 5964,
      "nus": 5965,
      "##of": 5966,
      "##ale": 5967,
      "qaraxaasi": 5968,
      "hoostaga": 5969,
      "culeys": 5970,
      "beeniyay": 5971,
      "murtiyeed": 5972,
      "crashiid": 5973,
      "barbaar": 5974,
      "dah": 5975,
      "article": 5976,
      "keli": 5977,
      "##iilka": 5978,
      "##aadada": 5979,
      "ibrah": 5980,
      "hadalo": 5981,
      "tegey": 5982,
      "##yi": 5983,
      "waajibaad": 5984,
      "kaabay": 5985,
      "qanacsan": 5986,
      "walig": 5987,
      "codadka": 5988,
      "wacyi": 5989,
      "qorshaynta": 5990,
      "bishaan": 5991,
      "##umada": 5992,
      "madaxtooyadda": 5993,
      "##iyow": 5994,
      "burburka": 5995,
      "dekeda": 5996,
      "haysata": 5997,
      "celcel": 5998,
      "muddooyinkii": 5999,
      "kali": 6000,
      "##aawi": 6001,
      "abdul": 6002,
      "south": 6003,
      "##addaasi": 6004,
      "sanduuq": 6005,
      "shaqooyin": 6006,
      "ogaa": 6007,
      "xarumo": 6008,
      "muhim": 6009,
      "tallaabada": 6010,
      "gir": 6011,
      "carbeed": 6012,
      "##ush": 6013,
      "jubb": 6014,
      "raalli": 6015,
      "macnaheedu": 6016,
      "mans": 6017,
      "jaaliyada": 6018,
      "sameynayo": 6019,
      "inaynu": 6020,
      "ayeey": 6021,
      "##und": 6022,
      "dejinta": 6023,
      "nuuc": 6024,
      "jawaabta": 6025,
      "##kul": 6026,
      "nag": 6027,
      "##ido": 6028,
      "nooga": 6029,
      "xalinta": 6030,
      "waxii": 6031,
      "em": 6032,
      "shaqeeyay": 6033,
      "maamulkii": 6034,
      "dhammaystir": 6035,
      "shuruudaha": 6036,
      "roon": 6037,
      "qabta": 6038,
      "ixtiraam": 6039,
      "##ue": 6040,
      "sidda": 6041,
      "laabtaan": 6042,
      "ilaaliyaan": 6043,
      "heeso": 6044,
      "jimcihii": 6045,
      "sarreeya": 6046,
      "mill": 6047,
      "timaado": 6048,
      "qaali": 6049,
      "iskuulka": 6050,
      "lax": 6051,
      "isticmaalaan": 6052,
      "qabsoom": 6053,
      "waaj": 6054,
      "aanad": 6055,
      "noocyada": 6056,
      "##aadii": 6057,
      "qosol": 6058,
      "harsan": 6059,
      "senator": 6060,
      "guric": 6061,
      "galiyo": 6062,
      "cadeeyay": 6063,
      "xigeenkiisa": 6064,
      "ash": 6065,
      "khaldan": 6066,
      "dastuuriga": 6067,
      "mustafe": 6068,
      "hindise": 6069,
      "dalxiis": 6070,
      "innaga": 6071,
      "dej": 6072,
      "xasiloonida": 6073,
      "muujisay": 6074,
      "carqal": 6075,
      "balaaran": 6076,
      "bixiyeen": 6077,
      "ood": 6078,
      "aaw": 6079,
      "maxkamadaha": 6080,
      "horkeen": 6081,
      "denmark": 6082,
      "halkaasoo": 6083,
      "cabdulqaadir": 6084,
      "website": 6085,
      "cabdin": 6086,
      "gaadheen": 6087,
      "wareejiyo": 6088,
      "maleeshiyaad": 6089,
      "masuulka": 6090,
      "aaska": 6091,
      "##isow": 6092,
      "heshiiskan": 6093,
      "##ick": 6094,
      "dambaysay": 6095,
      "istar": 6096,
      "idaacada": 6097,
      "saxiixan": 6098,
      "tartamay": 6099,
      "xasilinta": 6100,
      "horg": 6101,
      "uguna": 6102,
      "qorm": 6103,
      "danbeeyey": 6104,
      "##adkii": 6105,
      "##keyga": 6106,
      "##aynaynaa": 6107,
      "ahlusunna": 6108,
      "xero": 6109,
      "##22": 6110,
      "##leyda": 6111,
      "falka": 6112,
      "##hal": 6113,
      "mog": 6114,
      "daraaw": 6115,
      "fursado": 6116,
      "waxaas": 6117,
      "garoon": 6118,
      "##iran": 6119,
      "farta": 6120,
      "xaqiiqo": 6121,
      "saacadaha": 6122,
      "ergada": 6123,
      "guriceel": 6124,
      "aasaasay": 6125,
      "cabdiqaadir": 6126,
      "dalkii": 6127,
      "ammaanay": 6128,
      "taagay": 6129,
      "sen": 6130,
      "##nadii": 6131,
      "##max": 6132,
      "darr": 6133,
      "joojiyaan": 6134,
      "syria": 6135,
      "kitaab": 6136,
      "midab": 6137,
      "qaadday": 6138,
      "dhibc": 6139,
      "mareen": 6140,
      "dhalisay": 6141,
      "dowladd": 6142,
      "##madaxweynaha": 6143,
      "maamullada": 6144,
      "kacdoon": 6145,
      "fayr": 6146,
      "doonayso": 6147,
      "##imadii": 6148,
      "astaan": 6149,
      "xalane": 6150,
      "qudha": 6151,
      "garoob": 6152,
      "camal": 6153,
      "dow": 6154,
      "barakacayaasha": 6155,
      "lun": 6156,
      "dhiirigel": 6157,
      "##tiyo": 6158,
      "xubnihii": 6159,
      "##arkii": 6160,
      "koor": 6161,
      "##tani": 6162,
      "midnimo": 6163,
      "interna": 6164,
      "qiyaasay": 6165,
      "deegan": 6166,
      "salaan": 6167,
      "##der": 6168,
      "##ihiisu": 6169,
      "dhoweeyay": 6170,
      "wefti": 6171,
      "##ating": 6172,
      "sharrax": 6173,
      "barashada": 6174,
      "saacid": 6175,
      "ne": 6176,
      "saarto": 6177,
      "gacmaha": 6178,
      "heysto": 6179,
      "arintaasi": 6180,
      "bood": 6181,
      "hortagga": 6182,
      "milatari": 6183,
      "lad": 6184,
      "xirnaa": 6185,
      "baahiyaha": 6186,
      "mach": 6187,
      "##lka": 6188,
      "warbixiyey": 6189,
      "##dhaw": 6190,
      "faan": 6191,
      "musuqmaasuqa": 6192,
      "waraabiyo": 6193,
      "turkigu": 6194,
      "bakaaraha": 6195,
      "eey": 6196,
      "##oosto": 6197,
      "horeba": 6198,
      "farq": 6199,
      "somaaliya": 6200,
      "duu": 6201,
      "ogayn": 6202,
      "waydiin": 6203,
      "firfir": 6204,
      "dabool": 6205,
      "febraayo": 6206,
      "maka": 6207,
      "naftiisa": 6208,
      "mes": 6209,
      "##aynayaan": 6210,
      "joogaa": 6211,
      "slost": 6212,
      "##afm": 6213,
      "shirarka": 6214,
      "##kaagu": 6215,
      "salaadda": 6216,
      "##uqul": 6217,
      "hun": 6218,
      "fahan": 6219,
      "itoobiyaan": 6220,
      "baashe": 6221,
      "alaab": 6222,
      "tallaabooyin": 6223,
      "hawiye": 6224,
      "macallim": 6225,
      "isweyd": 6226,
      "dhaqameed": 6227,
      "weerareen": 6228,
      "howlan": 6229,
      "ilka": 6230,
      "shuc": 6231,
      "2008": 6232,
      "hadallada": 6233,
      "maraakiibta": 6234,
      "dareemay": 6235,
      "ger": 6236,
      "ahaado": 6237,
      "unier": 6238,
      "cabdishakuur": 6239,
      "kulankaas": 6240,
      "risaalafm": 6241,
      "diyaarin": 6242,
      "colaada": 6243,
      "degmooyin": 6244,
      "naftooda": 6245,
      "rabshado": 6246,
      "qaac": 6247,
      "heshiiyeen": 6248,
      "##iray": 6249,
      "rabaan": 6250,
      "ist": 6251,
      "##eeysa": 6252,
      "##omb": 6253,
      "booliis": 6254,
      "kabadan": 6255,
      "sameeya": 6256,
      "natiijo": 6257,
      "fadhiyo": 6258,
      "wasaaraddu": 6259,
      "utin": 6260,
      "ogow": 6261,
      "beelood": 6262,
      "markh": 6263,
      "xukuumaddii": 6264,
      "tiradoodu": 6265,
      "horeyn": 6266,
      "international": 6267,
      "tacsiy": 6268,
      "fadhig": 6269,
      "hordhac": 6270,
      "kaab": 6271,
      "sl": 6272,
      "##buuc": 6273,
      "aqbalay": 6274,
      "##tiisii": 6275,
      "duur": 6276,
      "hoteel": 6277,
      "bis": 6278,
      "weriye": 6279,
      "laayay": 6280,
      "##siyadda": 6281,
      "xambaarsan": 6282,
      "##sare": 6283,
      "##nta": 6284,
      "cha": 6285,
      "lacagtii": 6286,
      "##ikada": 6287,
      "dubai": 6288,
      "nebi": 6289,
      "sameynta": 6290,
      "codsi": 6291,
      "billowday": 6292,
      "##yadan": 6293,
      "##iintii": 6294,
      "laguu": 6295,
      "howsha": 6296,
      "qoyskiisa": 6297,
      "##iri": 6298,
      "waawayn": 6299,
      "daraawiish": 6300,
      "meydka": 6301,
      "magacaabista": 6302,
      "geeyey": 6303,
      "hadalkan": 6304,
      "dhuuxa": 6305,
      "qoyskii": 6306,
      "kaam": 6307,
      "##aandh": 6308,
      "tai": 6309,
      "ambab": 6310,
      "taakul": 6311,
      "##eestay": 6312,
      "wanaagga": 6313,
      "gudo": 6314,
      "danyar": 6315,
      "baabuurta": 6316,
      "##uqa": 6317,
      "tum": 6318,
      "khaatumo": 6319,
      "kunool": 6320,
      "dhigayo": 6321,
      "kaabayaasha": 6322,
      "##iiso": 6323,
      "##ack": 6324,
      "dagaalkan": 6325,
      "iibiyo": 6326,
      "hadalada": 6327,
      "haba": 6328,
      "tub": 6329,
      "##kaar": 6330,
      "##xil": 6331,
      "cadaalada": 6332,
      "##aatiij": 6333,
      "bandhigeen": 6334,
      "nuxurka": 6335,
      "##ania": 6336,
      "sark": 6337,
      "hadlayaa": 6338,
      "wacyigel": 6339,
      "saleysan": 6340,
      "india": 6341,
      "markaasaa": 6342,
      "##bir": 6343,
      "deegaankaasi": 6344,
      "caansan": 6345,
      "kacsan": 6346,
      "cak": 6347,
      "dacwada": 6348,
      "##aysato": 6349,
      "saliid": 6350,
      "raaceen": 6351,
      "caawiyo": 6352,
      "##ere": 6353,
      "##30": 6354,
      "shareecada": 6355,
      "abuurtay": 6356,
      "faad": 6357,
      "##tag": 6358,
      "maareynta": 6359,
      "bilaabatay": 6360,
      "diini": 6361,
      "khamiistii": 6362,
      "shirkado": 6363,
      "##bana": 6364,
      "kordhiyo": 6365,
      "axs": 6366,
      "##iyah": 6367,
      "wadnaha": 6368,
      "horeeya": 6369,
      "##batay": 6370,
      "dimoqraad": 6371,
      "rug": 6372,
      "jidadka": 6373,
      "agab": 6374,
      "marki": 6375,
      "##ith": 6376,
      "ognahay": 6377,
      "kooxdii": 6378,
      "hebel": 6379,
      "dhaliilay": 6380,
      "weey": 6381,
      "lacageed": 6382,
      "raf": 6383,
      "##eysnaa": 6384,
      "jawaabo": 6385,
      "madaxbannaan": 6386,
      "geesta": 6387,
      "ibrahim": 6388,
      "##qa": 6389,
      "ubad": 6390,
      "48": 6391,
      "ju": 6392,
      "bilic": 6393,
      "ogolaaday": 6394,
      "nawaax": 6395,
      "ciyaartoyda": 6396,
      "##teena": 6397,
      "toddobaadkan": 6398,
      "manta": 6399,
      "xaqiiqda": 6400,
      "qaram": 6401,
      "dhirta": 6402,
      "filaan": 6403,
      "36": 6404,
      "##mayaa": 6405,
      "gelisay": 6406,
      "noqda": 6407,
      "hayad": 6408,
      "##niinta": 6409,
      "qash": 6410,
      "asa": 6411,
      "ul": 6412,
      "maadd": 6413,
      "wareedyo": 6414,
      "yare": 6415,
      "bilihii": 6416,
      "haddaad": 6417,
      "cum": 6418,
      "##wadeen": 6419,
      "yarisow": 6420,
      "mon": 6421,
      "taariikhi": 6422,
      "##tiyada": 6423,
      "##ris": 6424,
      "walx": 6425,
      "gudbi": 6426,
      "heesaha": 6427,
      "isbahaysiga": 6428,
      "raisal": 6429,
      "sabtida": 6430,
      "xasilooni": 6431,
      "maamulo": 6432,
      "calaamad": 6433,
      "ururrada": 6434,
      "##iiyo": 6435,
      "mooyee": 6436,
      "toddobaadkii": 6437,
      "caa": 6438,
      "akhri": 6439,
      "aflag": 6440,
      "som": 6441,
      "xirtay": 6442,
      "howlgallada": 6443,
      "insha": 6444,
      "degmadaasi": 6445,
      "maroodi": 6446,
      "##oj": 6447,
      "dhoob": 6448,
      "bakh": 6449,
      "www": 6450,
      "sharciyada": 6451,
      "ibnu": 6452,
      "tuk": 6453,
      "gelinkii": 6454,
      "##ayaga": 6455,
      "shakhsi": 6456,
      "jibr": 6457,
      "raaco": 6458,
      "xamaas": 6459,
      "malaha": 6460,
      "maareeyaha": 6461,
      "intiisa": 6462,
      "ereter": 6463,
      "feej": 6464,
      "duubay": 6465,
      "waydiiyay": 6466,
      "maamulkiisa": 6467,
      "taageeraan": 6468,
      "xo": 6469,
      "194": 6470,
      "garoo": 6471,
      "kooxdiisa": 6472,
      "150": 6473,
      "badhas": 6474,
      "jeedaa": 6475,
      "culays": 6476,
      "hib": 6477,
      "sabool": 6478,
      "noocaas": 6479,
      "##dinta": 6480,
      "##door": 6481,
      "somalilandost": 6482,
      "boolisku": 6483,
      "##aafi": 6484,
      "##aduhu": 6485,
      "##idan": 6486,
      "bilaabi": 6487,
      "bixiya": 6488,
      "geeriyoodeen": 6489,
      "dhowaad": 6490,
      "fulisay": 6491,
      "muxum": 6492,
      "hin": 6493,
      "34": 6494,
      "jabhadda": 6495,
      "kooxood": 6496,
      "horreeya": 6497,
      "iyagoona": 6498,
      "##com": 6499,
      "ergayga": 6500,
      "fuliyaan": 6501,
      "sheegaan": 6502,
      "##iyeyaal": 6503,
      "saylici": 6504,
      "degaannada": 6505,
      "##kee": 6506,
      "xik": 6507,
      "dadaalo": 6508,
      "fikirka": 6509,
      "##adir": 6510,
      "rasaasta": 6511,
      "miyiga": 6512,
      "jimcaale": 6513,
      "gadaal": 6514,
      "nuk": 6515,
      "horyim": 6516,
      "baraawe": 6517,
      "guulaha": 6518,
      "talis": 6519,
      "kulmo": 6520,
      "kormeeray": 6521,
      "guryahooda": 6522,
      "adkaan": 6523,
      "dabcan": 6524,
      "mucj": 6525,
      "noolaan": 6526,
      "fow": 6527,
      "xij": 6528,
      "markabka": 6529,
      "##oc": 6530,
      "todobaadkan": 6531,
      "keating": 6532,
      "salmaan": 6533,
      "miyaan": 6534,
      "fursadaha": 6535,
      "mahadceliyey": 6536,
      "xuut": 6537,
      "heshiisyo": 6538,
      "maxal": 6539,
      "deegaanno": 6540,
      "##bitaal": 6541,
      "##alba": 6542,
      "dhuun": 6543,
      "ajnab": 6544,
      "bankiga": 6545,
      "##ons": 6546,
      "qoraaga": 6547,
      "madaxtinimada": 6548,
      "gaarsiiyo": 6549,
      "taasna": 6550,
      "xaqiijiyo": 6551,
      "tegi": 6552,
      "diirada": 6553,
      "ibraahin": 6554,
      "##21": 6555,
      "iyaduna": 6556,
      "dhammaadka": 6557,
      "2007": 6558,
      "goobjoogayaal": 6559,
      "dhall": 6560,
      "##aadu": 6561,
      "dagaalkaas": 6562,
      "hort": 6563,
      "dembi": 6564,
      "cambaareeyay": 6565,
      "##laawe": 6566,
      "qaranimada": 6567,
      "##iiro": 6568,
      "kans": 6569,
      "##oobi": 6570,
      "who": 6571,
      "gudbo": 6572,
      "##usho": 6573,
      "##ini": 6574,
      "caydiid": 6575,
      "ard": 6576,
      "shirkaan": 6577,
      "ahaantii": 6578,
      "sarkaalka": 6579,
      "bra": 6580,
      "isaaq": 6581,
      "##far": 6582,
      "maleeshiyo": 6583,
      "##lax": 6584,
      "taageera": 6585,
      "##aashay": 6586,
      "ansixiyey": 6587,
      "xilsaar": 6588,
      "##addo": 6589,
      "xabash": 6590,
      "maxamud": 6591,
      "fadeex": 6592,
      "xigasho": 6593,
      "##iyadaha": 6594,
      "siddeed": 6595,
      "raga": 6596,
      "qaw": 6597,
      "cuno": 6598,
      "baaqeen": 6599,
      "xiligan": 6600,
      "deris": 6601,
      "magaaladaas": 6602,
      "beyle": 6603,
      "masaaf": 6604,
      "saw": 6605,
      "kordhinta": 6606,
      "ansixinta": 6607,
      "webiga": 6608,
      "dhexeeyay": 6609,
      "saarin": 6610,
      "tartamaya": 6611,
      "jeclaan": 6612,
      "dhiirr": 6613,
      "diiwaanka": 6614,
      "muujiyaan": 6615,
      "##all": 6616,
      "ciyaaro": 6617,
      "nabadgelyo": 6618,
      "diblomaasiyadeed": 6619,
      "mataan": 6620,
      "koro": 6621,
      "labadaba": 6622,
      "soconaya": 6623,
      "haysato": 6624,
      "##deeda": 6625,
      "caqliga": 6626,
      "naxariisto": 6627,
      "band": 6628,
      "##waxa": 6629,
      "james": 6630,
      "bararka": 6631,
      "galinta": 6632,
      "intay": 6633,
      "xulaf": 6634,
      "hobyo": 6635,
      "masaajidka": 6636,
      "##ney": 6637,
      "dkmg": 6638,
      "diiwaangelinta": 6639,
      "nec": 6640,
      "orom": 6641,
      "heysa": 6642,
      "mareykanku": 6643,
      "##iyan": 6644,
      "xuj": 6645,
      "shisheeyaha": 6646,
      "ajaanib": 6647,
      "qaybsan": 6648,
      "##rac": 6649,
      "lixaad": 6650,
      "##madaxweyne": 6651,
      "sido": 6652,
      "##aagii": 6653,
      "simaha": 6654,
      "habraac": 6655,
      "ingiriisku": 6656,
      "siyaabo": 6657,
      "orod": 6658,
      "deb": 6659,
      "duf": 6660,
      "##we": 6661,
      "aris": 6662,
      "##daawo": 6663,
      "midig": 6664,
      "shanaad": 6665,
      "dhexdiisa": 6666,
      "askariga": 6667,
      "sheg": 6668,
      "baj": 6669,
      "kawada": 6670,
      "##walka": 6671,
      "laac": 6672,
      "maxamad": 6673,
      "aasaasiga": 6674,
      "##rc": 6675,
      "##xaan": 6676,
      "##oble": 6677,
      "laysku": 6678,
      "markaasi": 6679,
      "haray": 6680,
      "xarr": 6681,
      "wadajirka": 6682,
      "abuuro": 6683,
      "##ayaashu": 6684,
      "37": 6685,
      "saxiixday": 6686,
      "##shakuur": 6687,
      "wasiirro": 6688,
      "kariimka": 6689,
      "##maarke": 6690,
      "taiwan": 6691,
      "##adeena": 6692,
      "daan": 6693,
      "##ilaan": 6694,
      "arab": 6695,
      "ictir": 6696,
      "##isey": 6697,
      "awoodi": 6698,
      "sanado": 6699,
      "warsaxaafadeed": 6700,
      "tixgel": 6701,
      "xadhiga": 6702,
      "goleyaasha": 6703,
      "danab": 6704,
      "shabakadda": 6705,
      "goaansaday": 6706,
      "boliska": 6707,
      "murr": 6708,
      "rayaale": 6709,
      "##stada": 6710,
      "##eyey": 6711,
      "xarig": 6712,
      "daraasad": 6713,
      "sharmaarke": 6714,
      "dagaalku": 6715,
      "amaanay": 6716,
      "##tayda": 6717,
      "nafta": 6718,
      "gary": 6719,
      "dhamaystiran": 6720,
      "cweli": 6721,
      "seb": 6722,
      "unug": 6723,
      "aruur": 6724,
      "nukliy": 6725,
      "guulaysan": 6726,
      "bartaan": 6727,
      "wanaaga": 6728,
      "##gor": 6729,
      "##aaca": 6730,
      "saabsanaa": 6731,
      "jubbooyinka": 6732,
      "inf": 6733,
      "##geeda": 6734,
      "xuduuda": 6735,
      "machadka": 6736,
      "amba": 6737,
      "dhaqs": 6738,
      "##iyadu": 6739,
      "##sheeg": 6740,
      "kaalm": 6741,
      "inteeda": 6742,
      "diyaarado": 6743,
      "sabtidii": 6744,
      "waalidiinta": 6745,
      "##inimada": 6746,
      "baahiyay": 6747,
      "raaxada": 6748,
      "ehelada": 6749,
      "sur": 6750,
      "marayay": 6751,
      "ogtahay": 6752,
      "isboor": 6753,
      "islaamku": 6754,
      "mashruucan": 6755,
      "haka": 6756,
      "muuqataa": 6757,
      "axmad": 6758,
      "diyaarinta": 6759,
      "doorashadu": 6760,
      "liis": 6761,
      "xaqiiqada": 6762,
      "dejin": 6763,
      "wajiga": 6764,
      "##aasir": 6765,
      "yidhaahdeen": 6766,
      "dawo": 6767,
      "cshakuur": 6768,
      "kaniis": 6769,
      "qoond": 6770,
      "istanbul": 6771,
      "carqalad": 6772,
      "dooneyso": 6773,
      "magacaabis": 6774,
      "shay": 6775,
      "yidhaa": 6776,
      "socotaa": 6777,
      "cimilada": 6778,
      "##ashadii": 6779,
      "##dhexe": 6780,
      "maantana": 6781,
      "##ds": 6782,
      "xish": 6783,
      "usii": 6784,
      "ameer": 6785,
      "ictiraaf": 6786,
      "munaasabada": 6787,
      "gawaarida": 6788,
      "09": 6789,
      "##ooga": 6790,
      "##shiil": 6791,
      "##iman": 6792,
      "isbah": 6793,
      "mariyo": 6794,
      "amer": 6795,
      "dhexeysa": 6796,
      "dhamaadka": 6797,
      "xorriyadda": 6798,
      "06": 6799,
      "heeg": 6800,
      "dadweyn": 6801,
      "qudus": 6802,
      "gaarto": 6803,
      "xush": 6804,
      "gumaysiga": 6805,
      "##dil": 6806,
      "adigoo": 6807,
      "durba": 6808,
      "##ore": 6809,
      "08": 6810,
      "google": 6811,
      "xisaabtan": 6812,
      "cadh": 6813,
      "##leey": 6814,
      "ahaato": 6815,
      "qalinka": 6816,
      "yaraa": 6817,
      "##tayaasha": 6818,
      "##laam": 6819,
      "##hac": 6820,
      "dhalinta": 6821,
      "billaabay": 6822,
      "dhaadhic": 6823,
      "mos": 6824,
      "aamiin": 6825,
      "qaraxyadii": 6826,
      "##jam": 6827,
      "afeef": 6828,
      "lamid": 6829,
      "dabadeedna": 6830,
      "tuug": 6831,
      "##rin": 6832,
      "horumarin": 6833,
      "kacaan": 6834,
      "diyaariyey": 6835,
      "ruq": 6836,
      "saami": 6837,
      "kaddibna": 6838,
      "xumada": 6839,
      "dhegeyso": 6840,
      "##cy": 6841,
      "##daba": 6842,
      "aanka": 6843,
      "dhaleec": 6844,
      "07": 6845,
      "sch": 6846,
      "milla": 6847,
      "xukumadda": 6848,
      "dalkeeda": 6849,
      "##hol": 6850,
      "tashan": 6851,
      "keenaan": 6852,
      "gabadhii": 6853,
      "kulm": 6854,
      "madash": 6855,
      "kordhiyay": 6856,
      "##buur": 6857,
      "44": 6858,
      "badana": 6859,
      "muuqdaan": 6860,
      "mujaahidiin": 6861,
      "xuduudda": 6862,
      "##laal": 6863,
      "##aafta": 6864,
      "iftii": 6865,
      "taw": 6866,
      "imaam": 6867,
      "heshiisyada": 6868,
      "caddeyn": 6869,
      "gabo": 6870,
      "helaa": 6871,
      "darteedna": 6872,
      "khibrad": 6873,
      "ninkaasi": 6874,
      "muuqdo": 6875,
      "sugayo": 6876,
      "fuliyey": 6877,
      "rabshadaha": 6878,
      "cos": 6879,
      "mand": 6880,
      "ilhaan": 6881,
      "tacad": 6882,
      "xidig": 6883,
      "qunsul": 6884,
      "##uusta": 6885,
      "bosaso": 6886,
      "tib": 6887,
      "195": 6888,
      "cashar": 6889,
      "walxaha": 6890,
      "##ron": 6891,
      "caqabado": 6892,
      "##tus": 6893,
      "dhaan": 6894,
      "##iyayaal": 6895,
      "gurig": 6896,
      "dagaallanka": 6897,
      "dheef": 6898,
      "wareegga": 6899,
      "hoggaamiyo": 6900,
      "##iiyay": 6901,
      "maraan": 6902,
      "digtay": 6903,
      "##les": 6904,
      "##hael": 6905,
      "horseedi": 6906,
      "diri": 6907,
      "canshuurta": 6908,
      "gobolkaas": 6909,
      "waxyeelo": 6910,
      "nabadsugida": 6911,
      "43": 6912,
      "sheegnay": 6913,
      "cuq": 6914,
      "howlgala": 6915,
      "dhammaad": 6916,
      "ronal": 6917,
      "##toodu": 6918,
      "##su": 6919,
      "gartay": 6920,
      "hiddaha": 6921,
      "muxamed": 6922,
      "##eeyso": 6923,
      "faraxsanahay": 6924,
      "khab": 6925,
      "##adoodii": 6926,
      "wareejiyey": 6927,
      "kolon": 6928,
      "cu": 6929,
      "hoost": 6930,
      "her": 6931,
      "baahisay": 6932,
      "##ska": 6933,
      "rajaynayaa": 6934,
      "##ital": 6935,
      "suaasha": 6936,
      "jibriil": 6937,
      "hawlan": 6938,
      "dhaqaat": 6939,
      "badnayd": 6940,
      "qolo": 6941,
      "##amad": 6942,
      "horjoog": 6943,
      "kufsi": 6944,
      "baryayaa": 6945,
      "raage": 6946,
      "annagu": 6947,
      "##ious": 6948,
      "gudbineynaa": 6949,
      "isbedelka": 6950,
      "gudbisay": 6951,
      "waalan": 6952,
      "geyn": 6953,
      "kaleba": 6954,
      "qofna": 6955,
      "hannaan": 6956,
      "xiddig": 6957,
      "tacaal": 6958,
      "baadhis": 6959,
      "kooxdan": 6960,
      "qaraxaas": 6961,
      "this": 6962,
      "eedeeyeen": 6963,
      "qus": 6964,
      "waxuuna": 6965,
      "xirta": 6966,
      "joogeen": 6967,
      "millit": 6968,
      "##olis": 6969,
      "aakhir": 6970,
      "karti": 6971,
      "hassan": 6972,
      "telefoon": 6973,
      "arbaco": 6974,
      "caleemo": 6975,
      "labadaas": 6976,
      "unh": 6977,
      "faaii": 6978,
      "dhaxeeyo": 6979,
      "qarnigii": 6980,
      "qaah": 6981,
      "wadar": 6982,
      "casho": 6983,
      "dowladood": 6984,
      "xudd": 6985,
      "jawi": 6986,
      "guddoom": 6987,
      "ankara": 6988,
      "gaashaandhiga": 6989,
      "dhaawacyada": 6990,
      "hum": 6991,
      "mandh": 6992,
      "buuraha": 6993,
      "##ila": 6994,
      "xaqiijinta": 6995,
      "eedeyn": 6996,
      "safaarada": 6997,
      "faallo": 6998,
      "nimo": 6999,
      "##ganac": 7000,
      "aanta": 7001,
      "cisbitaalka": 7002,
      "jfs": 7003,
      "kaashanaya": 7004,
      "horkac": 7005,
      "qabsatay": 7006,
      "macaamiisha": 7007,
      "tikn": 7008,
      "ayn": 7009,
      "xuutiyiinta": 7010,
      "##inay": 7011,
      "walow": 7012,
      "buulo": 7013,
      "##aacay": 7014,
      "##layaasha": 7015,
      "bilowgii": 7016,
      "isgaadh": 7017,
      "##galbeed": 7018,
      "##yadiisa": 7019,
      "##iyuu": 7020,
      "suugaan": 7021,
      "ht": 7022,
      "mushkil": 7023,
      "dhasha": 7024,
      "muumin": 7025,
      "adan": 7026,
      "siiyeen": 7027,
      "albaabka": 7028,
      "haar": 7029,
      "iscas": 7030,
      "qurbaha": 7031,
      "ambas": 7032,
      "kumeel": 7033,
      "##eym": 7034,
      "taariikhiga": 7035,
      "isagana": 7036,
      "hanjabay": 7037,
      "cidh": 7038,
      "kalfadhiga": 7039,
      "##dda": 7040,
      "##sadaa": 7041,
      "doollar": 7042,
      "##aadku": 7043,
      "maxb": 7044,
      "arintaan": 7045,
      "unhcr": 7046,
      "hadla": 7047,
      "ereteriya": 7048,
      "##uma": 7049,
      "gh": 7050,
      "##bahaar": 7051,
      "bus": 7052,
      "sheegan": 7053,
      "darajada": 7054,
      "muud": 7055,
      "wakhtigan": 7056,
      "lugta": 7057,
      "baaxad": 7058,
      "waxeyna": 7059,
      "joogtay": 7060,
      "yaaq": 7061,
      "samaysan": 7062,
      "eegis": 7063,
      "muhiimada": 7064,
      "bogaadiyay": 7065,
      "kuxigeen": 7066,
      "sheekada": 7067,
      "badeec": 7068,
      "casr": 7069,
      "##wadaag": 7070,
      "qum": 7071,
      "dhamaad": 7072,
      "##say": 7073,
      "aga": 7074,
      "walaacsan": 7075,
      "benaadir": 7076,
      "baardheere": 7077,
      "adaha": 7078,
      "weftiga": 7079,
      "hooyadii": 7080,
      "cafis": 7081,
      "arrimood": 7082,
      "guddoomin": 7083,
      "dadkooda": 7084,
      "ergeyga": 7085,
      "dhacayaan": 7086,
      "heleyno": 7087,
      "ko": 7088,
      "ansixiyeen": 7089,
      "xukuumadu": 7090,
      "waran": 7091,
      "boqorkii": 7092,
      "cadawga": 7093,
      "##aashan": 7094,
      "xuluf": 7095,
      "mitir": 7096,
      "xuduudka": 7097,
      "shaqaynta": 7098,
      "doorashadda": 7099,
      "##amo": 7100,
      "waxyaalaha": 7101,
      "musharaxa": 7102,
      "aqriso": 7103,
      "noloshooda": 7104,
      "tek": 7105,
      "xoogagga": 7106,
      "badbaadiyo": 7107,
      "##ixi": 7108,
      "##sawir": 7109,
      "aqoonsaday": 7110,
      "dahabshiil": 7111,
      "magal": 7112,
      "tashi": 7113,
      "dor": 7114,
      "imaaraatka": 7115,
      "madiina": 7116,
      "idiinku": 7117,
      "xuquuqul": 7118,
      "micn": 7119,
      "##gmail": 7120,
      "ronaldo": 7121,
      "##qul": 7122,
      "gareen": 7123,
      "##uuska": 7124,
      "guudlaawe": 7125,
      "milateriga": 7126,
      "darawal": 7127,
      "eek": 7128,
      "lixda": 7129,
      "##madow": 7130,
      "saameeyeen": 7131,
      "yaqaanno": 7132,
      "kaariye": 7133,
      "##sc": 7134,
      "qabyo": 7135,
      "metel": 7136,
      "waalidka": 7137,
      "liibaan": 7138,
      "koobi": 7139,
      "gef": 7140,
      "macno": 7141,
      "walbo": 7142,
      "masjid": 7143,
      "bajaaj": 7144,
      "teb": 7145,
      "##aamay": 7146,
      "##mala": 7147,
      "kuwan": 7148,
      "china": 7149,
      "qabqab": 7150,
      "badalay": 7151,
      "sucuudi": 7152,
      "arbacadii": 7153,
      "##shiid": 7154,
      "cadaw": 7155,
      "mushahar": 7156,
      "waara": 7157,
      "dherer": 7158,
      "##marka": 7159,
      "cabdiq": 7160,
      "##ooyinkan": 7161,
      "tabar": 7162,
      "xigay": 7163,
      "degaano": 7164,
      "gooy": 7165,
      "weynaha": 7166,
      "wafdigiisa": 7167,
      "maa": 7168,
      "##dahay": 7169,
      "xabbad": 7170,
      "militari": 7171,
      "dhadhaab": 7172,
      "qaahira": 7173,
      "amiin": 7174,
      "duk": 7175,
      "##noq": 7176,
      "qaadey": 7177,
      "albaab": 7178,
      "ubax": 7179,
      "heshiisiin": 7180,
      "daid": 7181,
      "naftaada": 7182,
      "##diin": 7183,
      "muxumed": 7184,
      "uurka": 7185,
      "kalluunka": 7186,
      "marag": 7187,
      "dhaliyey": 7188,
      "xidho": 7189,
      "##fac": 7190,
      "##keenu": 7191,
      "manha": 7192,
      "##ashay": 7193,
      "qaf": 7194,
      "qalbiga": 7195,
      "samafalka": 7196,
      "boqortooy": 7197,
      "qaadanaya": 7198,
      "##wo": 7199,
      "raba": 7200,
      "siid": 7201,
      "burburay": 7202,
      "xariiqay": 7203,
      "dhaweynta": 7204,
      "waayaan": 7205,
      "reerka": 7206,
      "gaashaanle": 7207,
      "##addooda": 7208,
      "caado": 7209,
      "qiso": 7210,
      "calan": 7211,
      "dawladnimo": 7212,
      "buuxiyay": 7213,
      "itoobiy": 7214,
      "##nea": 7215,
      "sawirrada": 7216,
      "badankood": 7217,
      "##aaman": 7218,
      "xaflada": 7219,
      "brail": 7220,
      "tilmaantay": 7221,
      "xalin": 7222,
      "kobcinta": 7223,
      "doodda": 7224,
      "heshiin": 7225,
      "gaalada": 7226,
      "feejig": 7227,
      "bamb": 7228,
      "qarxiyay": 7229,
      "geysatay": 7230,
      "qura": 7231,
      "dhiiga": 7232,
      "47": 7233,
      "##aataan": 7234,
      "france": 7235,
      "01": 7236,
      "aynaan": 7237,
      "ik": 7238,
      "badbaadin": 7239,
      "idhi": 7240,
      "igmaday": 7241,
      "talaado": 7242,
      "ganacsat": 7243,
      "##araha": 7244,
      "fureen": 7245,
      "ballaar": 7246,
      "cirib": 7247,
      "##sashada": 7248,
      "calamada": 7249,
      "##eya": 7250,
      "xoosh": 7251,
      "masuuliyada": 7252,
      "bilaa": 7253,
      "##hiisa": 7254,
      "sheegaa": 7255,
      "qox": 7256,
      "cilmib": 7257,
      "dambiyada": 7258,
      "##kun": 7259,
      "##ight": 7260,
      "rec": 7261,
      "inoogu": 7262,
      "qorrax": 7263,
      "maamulaan": 7264,
      "next": 7265,
      "tigr": 7266,
      "wadaago": 7267,
      "##badii": 7268,
      "baniaada": 7269,
      "labaduba": 7270,
      "usa": 7271,
      "diyaarisay": 7272,
      "caddayn": 7273,
      "cabsida": 7274,
      "isniintii": 7275,
      "##cadda": 7276,
      "##ler": 7277,
      "xumaa": 7278,
      "racf": 7279,
      "madaama": 7280,
      "eh": 7281,
      "toddoba": 7282,
      "koofurta": 7283,
      "##ganacsiga": 7284,
      "horraysay": 7285,
      "dhacdadan": 7286,
      "messi": 7287,
      "geliyaan": 7288,
      "##12": 7289,
      "gacal": 7290,
      "qornaa": 7291,
      "baxayaan": 7292,
      "maaliyadeed": 7293,
      "argagaxisada": 7294,
      "xaqiijisay": 7295,
      "reebay": 7296,
      "##wer": 7297,
      "##gooda": 7298,
      "##kuu": 7299,
      "korontada": 7300,
      "albaabada": 7301,
      "habsami": 7302,
      "saldhigyada": 7303,
      "##fa": 7304,
      "dadkiisa": 7305,
      "##gashay": 7306,
      "baaj": 7307,
      "haysay": 7308,
      "hoggaamiyeyaasha": 7309,
      "tashiga": 7310,
      "waxgarad": 7311,
      "soddon": 7312,
      "noloshiisa": 7313,
      "sec": 7314,
      "saarnaayeen": 7315,
      "bilaash": 7316,
      "ruuxa": 7317,
      "qarash": 7318,
      "##neaolis": 7319,
      "bixitaanka": 7320,
      "saacad": 7321,
      "mudaharaad": 7322,
      "furi": 7323,
      "qabin": 7324,
      "markaasuu": 7325,
      "haystaa": 7326,
      "dhacayay": 7327,
      "abuuri": 7328,
      "joe": 7329,
      "abid": 7330,
      "38": 7331,
      "heysan": 7332,
      "gaarey": 7333,
      "keeneen": 7334,
      "agoon": 7335,
      "##ataax": 7336,
      "03": 7337,
      "xulay": 7338,
      "beddelay": 7339,
      "waaberi": 7340,
      "dagaalkaasi": 7341,
      "faadumo": 7342,
      "cc": 7343,
      "murugo": 7344,
      "xeeran": 7345,
      "hakad": 7346,
      "fo": 7347,
      "liida": 7348,
      "maalgashi": 7349,
      "##umaas": 7350,
      "diley": 7351,
      "duulaan": 7352,
      "michael": 7353,
      "galabsan": 7354,
      "shaandh": 7355,
      "##anay": 7356,
      "kaalmo": 7357,
      "shahaadada": 7358,
      "gabdho": 7359,
      "dabayaaq": 7360,
      "mudnaanta": 7361,
      "qorsheeyay": 7362,
      "markan": 7363,
      "iidow": 7364,
      "maamulaha": 7365,
      "##sadey": 7366,
      "waxeey": 7367,
      "araweel": 7368,
      "goobtii": 7369,
      "shabaabul": 7370,
      "addoon": 7371,
      "hagar": 7372,
      "2000": 7373,
      "khan": 7374,
      "02": 7375,
      "tot": 7376,
      "xaliyo": 7377,
      "gabeeyay": 7378,
      "daruur": 7379,
      "qorsheyn": 7380,
      "midawga": 7381,
      "kaca": 7382,
      "rakaab": 7383,
      "dareemayaa": 7384,
      "degmadaas": 7385,
      "raacsan": 7386,
      "wataan": 7387,
      "ballanqaaday": 7388,
      "caasha": 7389,
      "qodobadii": 7390,
      "##waynaha": 7391,
      "##ily": 7392,
      "carabka": 7393,
      "##maq": 7394,
      "gudoon": 7395,
      "lammaan": 7396,
      "doonayey": 7397,
      "noqonaysaa": 7398,
      "qabanqaab": 7399,
      "weerarro": 7400,
      "wejiga": 7401,
      "qabsadaan": 7402,
      "burburtay": 7403,
      "qey": 7404,
      "##kale": 7405,
      "haleel": 7406,
      "dhamaatay": 7407,
      "guuleysatay": 7408,
      "heyso": 7409,
      "dowladii": 7410,
      "xaalado": 7411,
      "imag": 7412,
      "##urin": 7413,
      "xiisaha": 7414,
      "sow": 7415,
      "furmaya": 7416,
      "daayey": 7417,
      "kaadh": 7418,
      "kordha": 7419,
      "shal": 7420,
      "dhulkii": 7421,
      "qarka": 7422,
      "culumada": 7423,
      "iibsan": 7424,
      "ayagoo": 7425,
      "tekn": 7426,
      "bandhigi": 7427,
      "minneaolis": 7428,
      "04": 7429,
      "diiran": 7430,
      "amiirka": 7431,
      "gobalada": 7432,
      "##axa": 7433,
      "sameyso": 7434,
      "mahadsanid": 7435,
      "koobaad": 7436,
      "times": 7437,
      "muhiimad": 7438,
      "eedeysay": 7439,
      "burburkii": 7440,
      "wiiq": 7441,
      "baarlamaanku": 7442,
      "##ahaaga": 7443,
      "fat": 7444,
      "laan": 7445,
      "##taana": 7446,
      "maalintaas": 7447,
      "garanayn": 7448,
      "dalkeenna": 7449,
      "gaa": 7450,
      "arrintani": 7451,
      "##radii": 7452,
      "farma": 7453,
      "##araad": 7454,
      "marba": 7455,
      "khad": 7456,
      "lagaa": 7457,
      "##toon": 7458,
      "##haha": 7459,
      "idl": 7460,
      "dhoweeyey": 7461,
      "fadhiyay": 7462,
      "ayan": 7463,
      "xukum": 7464,
      "maamusho": 7465,
      "miiska": 7466,
      "daawan": 7467,
      "##kariim": 7468,
      "holland": 7469,
      "##oomay": 7470,
      "rasuulku": 7471,
      "##laaq": 7472,
      "kacday": 7473,
      "arrimahaas": 7474,
      "##ayse": 7475,
      "maayarka": 7476,
      "baraarug": 7477,
      "naqsh": 7478,
      "tibaax": 7479,
      "rajeynayaa": 7480,
      "amma": 7481,
      "nato": 7482,
      "##aarij": 7483,
      "telefoonka": 7484,
      "noqoshada": 7485,
      "hadaan": 7486,
      "##heen": 7487,
      "qaasim": 7488,
      "wadaagay": 7489,
      "warqadda": 7490,
      "dawladdii": 7491,
      "abaaro": 7492,
      "abriil": 7493,
      "iido": 7494,
      "yas": 7495,
      "hant": 7496,
      "kujir": 7497,
      "direen": 7498,
      "waramayaa": 7499,
      "##eeray": 7500,
      "jug": 7501,
      "##qan": 7502,
      "naj": 7503,
      "layahay": 7504,
      "##somaliland": 7505,
      "qaraabadii": 7506,
      "##kum": 7507,
      "##ooska": 7508,
      "click": 7509,
      "imaad": 7510,
      "maareeye": 7511,
      "firfircoon": 7512,
      "canshuuraha": 7513,
      "##siisay": 7514,
      "ergo": 7515,
      "baxda": 7516,
      "dhabarka": 7517,
      "dambayntii": 7518,
      "axsaabta": 7519,
      "daraawiishta": 7520,
      "##iisul": 7521,
      "##sador": 7522,
      "halg": 7523,
      "awoodaha": 7524,
      "##alaha": 7525,
      "wareegaan": 7526,
      "yeero": 7527,
      "##eng": 7528,
      "guuleysto": 7529,
      "##tish": 7530,
      "##xakiin": 7531,
      "dambeysa": 7532,
      "foosha": 7533,
      "xasaas": 7534,
      "aqoonyahanka": 7535,
      "damac": 7536,
      "42": 7537,
      "##alsan": 7538,
      "deeqay": 7539,
      "##aaqay": 7540,
      "##nii": 7541,
      "midaysan": 7542,
      "yari": 7543,
      "anagu": 7544,
      "##geysa": 7545,
      "ogaadaan": 7546,
      "rabitaanka": 7547,
      "##galin": 7548,
      "saas": 7549,
      "##rka": 7550,
      "qabsoon": 7551,
      "jeedisay": 7552,
      "##aane": 7553,
      "xileed": 7554,
      "furmo": 7555,
      "dhuxul": 7556,
      "kamala": 7557,
      "##key": 7558,
      "##res": 7559,
      "dhakhaatiirta": 7560,
      "shim": 7561,
      "saameeyay": 7562,
      "aragnay": 7563,
      "mawduuc": 7564,
      "macalimiinta": 7565,
      "guutada": 7566,
      "cabdiwali": 7567,
      "sirta": 7568,
      "horjeeday": 7569,
      "dhameystiran": 7570,
      "gudbiyaan": 7571,
      "geysto": 7572,
      "bogaadiyey": 7573,
      "khubarada": 7574,
      "lacagtaas": 7575,
      "waaq": 7576,
      "dabeec": 7577,
      "safarkii": 7578,
      "arrimahan": 7579,
      "warran": 7580,
      "beerta": 7581,
      "ninkaas": 7582,
      "##aatee": 7583,
      "deked": 7584,
      "shirq": 7585,
      "jece": 7586,
      "afartan": 7587,
      "jiil": 7588,
      "del": 7589,
      "##araal": 7590,
      "shabakada": 7591,
      "rwasaare": 7592,
      "doorteen": 7593,
      "heshiiskaas": 7594,
      "remi": 7595,
      "baasaboorka": 7596,
      "kufsiga": 7597,
      "cat": 7598,
      "gadh": 7599,
      "wajaale": 7600,
      "bilaaw": 7601,
      "naxdin": 7602,
      "fuul": 7603,
      "kib": 7604,
      "##cab": 7605,
      "maxed": 7606,
      "badanna": 7607,
      "naafada": 7608,
      "dheeraa": 7609,
      "dhisme": 7610,
      "amx": 7611,
      "ismiidaamin": 7612,
      "batr": 7613,
      "dariska": 7614,
      "joojiyey": 7615,
      "qoreen": 7616,
      "hogaamiyo": 7617,
      "##ashaxa": 7618,
      "bedeli": 7619,
      "##geli": 7620,
      "degtay": 7621,
      "rabbigu": 7622,
      "##isku": 7623,
      "##ola": 7624,
      "arrintaa": 7625,
      "khamiista": 7626,
      "dhiggiisa": 7627,
      "aadaya": 7628,
      "asxaabta": 7629,
      "xayiraad": 7630,
      "dhakhaatiir": 7631,
      "howlo": 7632,
      "hadley": 7633,
      "##maah": 7634,
      "dheh": 7635,
      "agoosto": 7636,
      "noqnoq": 7637,
      "sareysa": 7638,
      "shabeelada": 7639,
      "cawil": 7640,
      "bosaaso": 7641,
      "dagaaladii": 7642,
      "xudur": 7643,
      "wik": 7644,
      "144": 7645,
      "me": 7646,
      "lakiin": 7647,
      "xayawaanka": 7648,
      "kharashka": 7649,
      "##atada": 7650,
      "aagga": 7651,
      "##dana": 7652,
      "wah": 7653,
      "gogol": 7654,
      "qabeen": 7655,
      "caawiyaan": 7656,
      "##lig": 7657,
      "bilaabmay": 7658,
      "##kad": 7659,
      "cudurkan": 7660,
      "saaxiibada": 7661,
      "syl": 7662,
      "ambassador": 7663,
      "iews": 7664,
      "dhaqameedka": 7665,
      "kulankaan": 7666,
      "woqooyi": 7667,
      "boostada": 7668,
      "lahaan": 7669,
      "codsatay": 7670,
      "suaalaha": 7671,
      "codsanayaa": 7672,
      "taliyeyaasha": 7673,
      "dhaqmo": 7674,
      "afrikaan": 7675,
      "75": 7676,
      "shaqsiyaadka": 7677,
      "##ich": 7678,
      "taageeri": 7679,
      "haweenay": 7680,
      "ajan": 7681,
      "##adiin": 7682,
      "yaabay": 7683,
      "qeybtii": 7684,
      "dhexeeyo": 7685,
      "##ated": 7686,
      "samayso": 7687,
      "horayn": 7688,
      "caano": 7689,
      "garoomada": 7690,
      "qaaw": 7691,
      "duw": 7692,
      "mob": 7693,
      "##dee": 7694,
      "##24": 7695,
      "xaquuq": 7696,
      "##fataax": 7697,
      "don": 7698,
      "noqonayo": 7699,
      "teles": 7700,
      "farmajo": 7701,
      "gorf": 7702,
      "joogt": 7703,
      "weydiis": 7704,
      "##ili": 7705,
      "dabar": 7706,
      "wadatashi": 7707,
      "maanka": 7708,
      "##aayadaha": 7709,
      "bilowga": 7710,
      "cosoble": 7711,
      "##icsan": 7712,
      "aaf": 7713,
      "duug": 7714,
      "##dhay": 7715,
      "afaraad": 7716,
      "##riye": 7717,
      "##eraalka": 7718,
      "tiradooda": 7719,
      "tallaabadan": 7720,
      "deeqaha": 7721,
      "tixraac": 7722,
      "dabada": 7723,
      "hadlayaan": 7724,
      "takhas": 7725,
      "tuulo": 7726,
      "##sty": 7727,
      "aaso": 7728,
      "##gali": 7729,
      "samata": 7730,
      "cwali": 7731,
      "saxaafadeedka": 7732,
      "dhibcood": 7733,
      "54": 7734,
      "caar": 7735,
      "duun": 7736,
      "rajeyn": 7737,
      "hortaga": 7738,
      "iswiidh": 7739,
      "##isaan": 7740,
      "colaadaha": 7741,
      "dheehan": 7742,
      "taliy": 7743,
      "quud": 7744,
      "##onews": 7745,
      "doonayeen": 7746,
      "shhoose": 7747,
      "joojisay": 7748,
      "goostay": 7749,
      "dheeraaday": 7750,
      "deegaankaas": 7751,
      "muhaajiriin": 7752,
      "keny": 7753,
      "diwaan": 7754,
      "galkacyo": 7755,
      "beenta": 7756,
      "doortaan": 7757,
      "qorshaysan": 7758,
      "##qo": 7759,
      "bogaadin": 7760,
      "##oolaj": 7761,
      "shirku": 7762,
      "remier": 7763,
      "ki": 7764,
      "telefishinka": 7765,
      "##ilo": 7766,
      "##iko": 7767,
      "timaad": 7768,
      "##edaha": 7769,
      "casuumay": 7770,
      "##ara": 7771,
      "hogaaminayay": 7772,
      "dooni": 7773,
      "qabow": 7774,
      "xukuumadd": 7775,
      "wadahadalka": 7776,
      "05": 7777,
      "##ahi": 7778,
      "tartami": 7779,
      "asaga": 7780,
      "magacyadooda": 7781,
      "dhaqaaqa": 7782,
      "##akh": 7783,
      "##dam": 7784,
      "##aqa": 7785,
      "##13": 7786,
      "galayaan": 7787,
      "joogi": 7788,
      "samaynayo": 7789,
      "kut": 7790,
      "masuuliyiintii": 7791,
      "mudaah": 7792,
      "duruufaha": 7793,
      "halganka": 7794,
      "wasaaruhu": 7795,
      "telesom": 7796,
      "##he": 7797,
      "gudoomiyihii": 7798,
      "qabyaalad": 7799,
      "qabtaa": 7800,
      "qolka": 7801,
      "hut": 7802,
      "khadii": 7803,
      "qiimeyn": 7804,
      "sey": 7805,
      "ugala": 7806,
      "dhibta": 7807,
      "##oonis": 7808,
      "##kaygii": 7809,
      "nnkh": 7810,
      "jawaabtay": 7811,
      "badbaado": 7812,
      "##use": 7813,
      "##els": 7814,
      "##oore": 7815,
      "gid": 7816,
      "dhiganta": 7817,
      "aragnimo": 7818,
      "jadwalka": 7819,
      "innagu": 7820,
      "dabiici": 7821,
      "yara": 7822,
      "##dow": 7823,
      "qorshihii": 7824,
      "qasriga": 7825,
      "oogay": 7826,
      "takhasus": 7827,
      "galnay": 7828,
      "tiiraan": 7829,
      "kus": 7830,
      "dowladu": 7831,
      "wadamo": 7832,
      "istaago": 7833,
      "hortagi": 7834,
      "dowladeed": 7835,
      "duqeymo": 7836,
      "##imadda": 7837,
      "shirweyn": 7838,
      "khiy": 7839,
      "gil": 7840,
      "arka": 7841,
      "haynta": 7842,
      "afgam": 7843,
      "39": 7844,
      "ogaato": 7845,
      "marinta": 7846,
      "##yaasha": 7847,
      "celinayaa": 7848,
      "xilkaas": 7849,
      "##eeysan": 7850,
      "gaadhin": 7851,
      "nabadgalyada": 7852,
      "mail": 7853,
      "geor": 7854,
      "warays": 7855,
      "farsha": 7856,
      "##aasheena": 7857,
      "kumaan": 7858,
      "##madu": 7859,
      "dhid": 7860,
      "ismaamulka": 7861,
      "baasaboor": 7862,
      "hirgelin": 7863,
      "hayado": 7864,
      "##wanda": 7865,
      "kacaanka": 7866,
      "markhaati": 7867,
      "laaluush": 7868,
      "##goo": 7869,
      "##iilo": 7870,
      "taageerayaash": 7871,
      "daauud": 7872,
      "ckariin": 7873,
      "##axda": 7874,
      "muujinayaan": 7875,
      "basaas": 7876,
      "maxkamaddu": 7877,
      "dhaqso": 7878,
      "xoogaga": 7879,
      "dhaweeyeen": 7880,
      "ciidamadan": 7881,
      "tusaal": 7882,
      "##aayaan": 7883,
      "akhlaaq": 7884,
      "##khad": 7885,
      "tallaabooyinka": 7886,
      "layaab": 7887,
      "wafti": 7888,
      "horseeday": 7889,
      "xilkaasi": 7890,
      "talog": 7891,
      "sag": 7892,
      "inooga": 7893,
      "baniaadan": 7894,
      "fall": 7895,
      "baydhaba": 7896,
      "##khal": 7897,
      "dawladnimada": 7898,
      "howlgalo": 7899,
      "xanuunsan": 7900,
      "##aalada": 7901,
      "injin": 7902,
      "ujeedd": 7903,
      "ele": 7904,
      "##ladu": 7905,
      "##asa": 7906,
      "##wasiirka": 7907,
      "xa": 7908,
      "haday": 7909,
      "dulq": 7910,
      "barnaamijkan": 7911,
      "awq": 7912,
      "cawaale": 7913,
      "koobnaa": 7914,
      "radi": 7915,
      "wiilkii": 7916,
      "600": 7917,
      "shaqadiisa": 7918,
      "tanania": 7919,
      "guray": 7920,
      "qaabada": 7921,
      "cadeyn": 7922,
      "##sur": 7923,
      "cabdikariin": 7924,
      "diblumaas": 7925,
      "siweyn": 7926,
      "isgaadhsiinta": 7927,
      "wiilash": 7928,
      "maaddaama": 7929,
      "weerartay": 7930,
      "jeclahay": 7931,
      "##saf": 7932,
      "codkooda": 7933,
      "##aayadda": 7934,
      "xilliyada": 7935,
      "arkayay": 7936,
      "salaada": 7937,
      "##alo": 7938,
      "kuwait": 7939,
      "ogsoon": 7940,
      "2006": 7941,
      "duulay": 7942,
      "##nad": 7943,
      "shiic": 7944,
      "##iima": 7945,
      "horjeedaan": 7946,
      "raaxo": 7947,
      "istir": 7948,
      "yax": 7949,
      "##haya": 7950,
      "##kaasna": 7951,
      "55": 7952,
      "bedelo": 7953,
      "dhakhso": 7954,
      "sg": 7955,
      "##qada": 7956,
      "fannaan": 7957,
      "dhammeystir": 7958,
      "abaaruhu": 7959,
      "mansuur": 7960,
      "muujiyo": 7961,
      "goobihii": 7962,
      "sahl": 7963,
      "##daanka": 7964,
      "gacanka": 7965,
      "qaadaa": 7966,
      "wareysiyada": 7967,
      "##asoo": 7968,
      "xaam": 7969,
      "konton": 7970,
      "airlin": 7971,
      "tor": 7972,
      "##kala": 7973,
      "xorta": 7974,
      "dhaqaaqay": 7975,
      "duulimaadyada": 7976,
      "gadood": 7977,
      "##kaani": 7978,
      "lugu": 7979,
      "isniinta": 7980,
      "##yr": 7981,
      "gudan": 7982,
      "adis": 7983,
      "ahaanna": 7984,
      "cabdirax": 7985,
      "keento": 7986,
      "nebiga": 7987,
      "lt": 7988,
      "mariyay": 7989,
      "xaafado": 7990,
      "##banaadir": 7991,
      "jeclaa": 7992,
      "moog": 7993,
      "faragal": 7994,
      "suuban": 7995,
      "##mas": 7996,
      "iibin": 7997,
      "mee": 7998,
      "##cow": 7999,
      "afartii": 8000,
      "ahba": 8001,
      "heshiiyey": 8002,
      "saxiixdeen": 8003,
      "tababaro": 8004,
      "xiligaas": 8005,
      "##liam": 8006,
      "xaaraan": 8007,
      "aul": 8008,
      "bare": 8009,
      "makh": 8010,
      "gabdhood": 8011,
      "maslax": 8012,
      "chami": 8013,
      "##aafka": 8014,
      "##sigan": 8015,
      "heystaan": 8016,
      "aalo": 8017,
      "buugaagta": 8018,
      "cunaqabateynta": 8019,
      "culum": 8020,
      "##wasaar": 8021,
      "dawladu": 8022,
      "macnaha": 8023,
      "doc": 8024,
      "taliban": 8025,
      "garbahaar": 8026,
      "isboortiga": 8027,
      "dambeeyeen": 8028,
      "xadhig": 8029,
      "nuqul": 8030,
      "gaarayo": 8031,
      "hilibka": 8032,
      "##rif": 8033,
      "adkaaday": 8034,
      "yeeli": 8035,
      "daris": 8036,
      "duwanaa": 8037,
      "ciqaabta": 8038,
      "maahan": 8039,
      "fircoon": 8040,
      "##sk": 8041,
      "goantahay": 8042,
      "##cayo": 8043,
      "##aweyn": 8044,
      "eheladii": 8045,
      "martida": 8046,
      "wareegtada": 8047,
      "liita": 8048,
      "jirnay": 8049,
      "walwal": 8050,
      "ceyr": 8051,
      "##ied": 8052,
      "gaadhsiin": 8053,
      "om": 8054,
      "##ft": 8055,
      "gollaha": 8056,
      "deynta": 8057,
      "danyarta": 8058,
      "nukliyeerka": 8059,
      "nugu": 8060,
      "yareeyo": 8061,
      "dhami": 8062,
      "carabi": 8063,
      "dagaalamaya": 8064,
      "aabihii": 8065,
      "caban": 8066,
      "abo": 8067,
      "sokow": 8068,
      "nof": 8069,
      "xamse": 8070,
      "##ate": 8071,
      "##uel": 8072,
      "wayna": 8073,
      "naal": 8074,
      "soona": 8075,
      "majir": 8076,
      "raashinka": 8077,
      "kiisaska": 8078,
      "dhacdooyin": 8079,
      "nacayb": 8080,
      "gorgor": 8081,
      "duqeynta": 8082,
      "qaadanayaan": 8083,
      "dunidu": 8084,
      "caaq": 8085,
      "hanaan": 8086,
      "tooska": 8087,
      "sagoo": 8088,
      "lub": 8089,
      "wanaaj": 8090,
      "ridada": 8091,
      "muujinaysa": 8092,
      "41": 8093,
      "toor": 8094,
      "maleeg": 8095,
      "badbaadiyay": 8096,
      "##aydaan": 8097,
      "##aysiin": 8098,
      "barkhad": 8099,
      "qorshayaasha": 8100,
      "hawlo": 8101,
      "hortiisa": 8102,
      "dekedaha": 8103,
      "roobka": 8104,
      "sonkor": 8105,
      "lixdan": 8106,
      "baroor": 8107,
      "ciidanku": 8108,
      "wareer": 8109,
      "##uunta": 8110,
      "hadalnay": 8111,
      "kulantay": 8112,
      "musuqa": 8113,
      "icj": 8114,
      "dagmada": 8115,
      "caloosha": 8116,
      "caadada": 8117,
      "##galinta": 8118,
      "dibadiisa": 8119,
      "hala": 8120,
      "##idaha": 8121,
      "sanduuqa": 8122,
      "midho": 8123,
      "belgi": 8124,
      "swan": 8125,
      "warqab": 8126,
      "doonan": 8127,
      "hurdo": 8128,
      "shillin": 8129,
      "saan": 8130,
      "iri": 8131,
      "dawladeed": 8132,
      "bandhigo": 8133,
      "welwel": 8134,
      "budh": 8135,
      "sharcigu": 8136,
      "rogtay": 8137,
      "tiirka": 8138,
      "garto": 8139,
      "beelo": 8140,
      "khabiir": 8141,
      "rajada": 8142,
      "agaasimihii": 8143,
      "xubinta": 8144,
      "##ci": 8145,
      "bannaanka": 8146,
      "falcel": 8147,
      "xaak": 8148,
      "samaynta": 8149,
      "milateri": 8150,
      "fadar": 8151,
      "ereyada": 8152,
      "##eysid": 8153,
      "hayaha": 8154,
      "horjeestay": 8155,
      "##ame": 8156,
      "daafaha": 8157,
      "##iyadooda": 8158,
      "home": 8159,
      "##idiisa": 8160,
      "goyn": 8161,
      "argagixis": 8162,
      "##df": 8163,
      "bidix": 8164,
      "##row": 8165,
      "rabbi": 8166,
      "guursaday": 8167,
      "##liil": 8168,
      "khuseeya": 8169,
      "sor": 8170,
      "xumaado": 8171,
      "more": 8172,
      "##saan": 8173,
      "caddeeyay": 8174,
      "midow": 8175,
      "anton": 8176,
      "marayaan": 8177,
      "reious": 8178,
      "qaraxu": 8179,
      "quus": 8180,
      "##aleyda": 8181,
      "garaacay": 8182,
      "codsadeen": 8183,
      "##tihiin": 8184,
      "dalbatay": 8185,
      "fadhi": 8186,
      "tuulooyinka": 8187,
      "marwalba": 8188,
      "boliiska": 8189,
      "siiya": 8190,
      "xoreynta": 8191,
      "dhimash": 8192,
      "xidiga": 8193,
      "afweyn": 8194,
      "cuntooyinka": 8195,
      "taalo": 8196,
      "swit": 8197,
      "##ajab": 8198,
      "meydadka": 8199,
      "qorayaasha": 8200,
      "weydiiyo": 8201,
      "dani": 8202,
      "##itaankii": 8203,
      "shaqa": 8204,
      "jeedinayaa": 8205,
      "qaadaya": 8206,
      "macl": 8207,
      "janno": 8208,
      "4aad": 8209,
      "ninkeeda": 8210,
      "wareegi": 8211,
      "xayawaan": 8212,
      "falkaasi": 8213,
      "yac": 8214,
      "##iyana": 8215,
      "oggolaan": 8216,
      "geba": 8217,
      "bilicda": 8218,
      "cusbitaalka": 8219,
      "##ifay": 8220,
      "beenisay": 8221,
      "fl": 8222,
      "maqaalkan": 8223,
      "batroolka": 8224,
      "shakisan": 8225,
      "qiray": 8226,
      "qirtay": 8227,
      "##qu": 8228,
      "guuradii": 8229,
      "muhaajiriinta": 8230,
      "heegan": 8231,
      "daf": 8232,
      "##ico": 8233,
      "xisbigu": 8234,
      "##nimadu": 8235,
      "##sil": 8236,
      "jagada": 8237,
      "wuf": 8238,
      "##yare": 8239,
      "xanaanada": 8240,
      "codsiga": 8241,
      "dhiibo": 8242,
      "xallinta": 8243,
      "##tiib": 8244,
      "sharciyeedka": 8245,
      "raadiyo": 8246,
      "england": 8247,
      "hoteelka": 8248,
      "siiba": 8249,
      "hormarka": 8250,
      "kaluum": 8251,
      "##mara": 8252,
      "horraantii": 8253,
      "we": 8254,
      "dhiibtay": 8255,
      "xisaabtamo": 8256,
      "mugdi": 8257,
      "iibsaday": 8258,
      "ujeeddada": 8259,
      "##rib": 8260,
      "geedka": 8261,
      "araweelo": 8262,
      "sayniska": 8263,
      "belgium": 8264,
      "taalibaan": 8265,
      "shaqeynayay": 8266,
      "jirtey": 8267,
      "asagoo": 8268,
      "gaajo": 8269,
      "##reeb": 8270,
      "kuuriya": 8271,
      "wacyigelinta": 8272,
      "helitaanka": 8273,
      "barakaysan": 8274,
      "aaminaad": 8275,
      "maxbuus": 8276,
      "hubiyo": 8277,
      "weriyaha": 8278,
      "saddexdii": 8279,
      "gabagabeeyay": 8280,
      "##2018": 8281,
      "dimuqraadiyadda": 8282,
      "ih": 8283,
      "celisay": 8284,
      "xeerkan": 8285,
      "tagto": 8286,
      "bayaanka": 8287,
      "bruss": 8288,
      "kansarka": 8289,
      "##oba": 8290,
      "qabsado": 8291,
      "afduubtay": 8292,
      "taliyay": 8293,
      "suldaanka": 8294,
      "injineer": 8295,
      "daarood": 8296,
      "adeegsadaan": 8297,
      "##iik": 8298,
      "naloo": 8299,
      "kuyaal": 8300,
      "##oomiyaha": 8301,
      "caanaha": 8302,
      "istaagaan": 8303,
      "xoogaa": 8304,
      "ogahay": 8305,
      "kolka": 8306,
      "switerland": 8307,
      "golihiisa": 8308,
      "##cada": 8309,
      "baahna": 8310,
      "tam": 8311,
      "kordhiyey": 8312,
      "##idoon": 8313,
      "shuban": 8314,
      "gaadhaya": 8315,
      "tallaalka": 8316,
      "afraad": 8317,
      "dadaalada": 8318,
      "ruushku": 8319,
      "awqaafta": 8320,
      "wato": 8321,
      "bogg": 8322,
      "timi": 8323,
      "gobaleedyada": 8324,
      "mucaarid": 8325,
      "khaw": 8326,
      "taban": 8327,
      "##naado": 8328,
      "martig": 8329,
      "##ifa": 8330,
      "aaminsanahay": 8331,
      "##isol": 8332,
      "yaboo": 8333,
      "eegi": 8334,
      "lamana": 8335,
      "dhigin": 8336,
      "##kayaga": 8337,
      "miisaaniyada": 8338,
      "umad": 8339,
      "sannadihii": 8340,
      "diiwaangel": 8341,
      "guuleysteen": 8342,
      "##oosan": 8343,
      "##aand": 8344,
      "wareejinta": 8345,
      "##nimadiisa": 8346,
      "gurigii": 8347,
      "tari": 8348,
      "xaajood": 8349,
      "yaabka": 8350,
      "dekada": 8351,
      "taageerayo": 8352,
      "mowduuc": 8353,
      "dalbadeen": 8354,
      "##aysnaa": 8355,
      "xumaaday": 8356,
      "53": 8357,
      "##con": 8358,
      "hoosaadka": 8359,
      "##ence": 8360,
      "sedex": 8361,
      "aqlabiyad": 8362,
      "##toc": 8363,
      "ked": 8364,
      "anshaxa": 8365,
      "africom": 8366,
      "##sanayn": 8367,
      "##iimaha": 8368,
      "sugayaan": 8369,
      "##teedu": 8370,
      "mandheera": 8371,
      "tallo": 8372,
      "askartii": 8373,
      "saraakiishii": 8374,
      "qofkasta": 8375,
      "2005": 8376,
      "dawannews": 8377,
      "taabacsan": 8378,
      "habaab": 8379,
      "heyn": 8380,
      "qaraabada": 8381,
      "hanuun": 8382,
      "qorshuhu": 8383,
      "dhawaaj": 8384,
      "hubin": 8385,
      "gutaan": 8386,
      "gardar": 8387,
      "talaad": 8388,
      "halgankii": 8389,
      "120": 8390,
      "xayuub": 8391,
      "sheegto": 8392,
      "abii": 8393,
      "qancin": 8394,
      "furfur": 8395,
      "##joogta": 8396,
      "duufaan": 8397,
      "yaq": 8398,
      "wuuna": 8399,
      "kolba": 8400,
      "##wareer": 8401,
      "maahmaah": 8402,
      "federal": 8403,
      "jeeb": 8404,
      "shdhexe": 8405,
      "isf": 8406,
      "laabteen": 8407,
      "hortaagan": 8408,
      "tagey": 8409,
      "ikh": 8410,
      "oobe": 8411,
      "khilaafkii": 8412,
      "aadna": 8413,
      "badhasaabka": 8414,
      "gaysan": 8415,
      "baxsadeen": 8416,
      "jimic": 8417,
      "mawqif": 8418,
      "##tie": 8419,
      "baahnayn": 8420,
      "##iyaadka": 8421,
      "luulyo": 8422,
      "##sin": 8423,
      "midba": 8424,
      "##som": 8425,
      "garanayo": 8426,
      "raaca": 8427,
      "diidka": 8428,
      "danbeyn": 8429,
      "haweeneyda": 8430,
      "dhismayaasha": 8431,
      "sugayaa": 8432,
      "waqtigaas": 8433,
      "##dhka": 8434,
      "mudooyinkii": 8435,
      "hoggaaminayay": 8436,
      "janan": 8437,
      "lambar": 8438,
      "##tions": 8439,
      "yeelo": 8440,
      "danbeyntii": 8441,
      "tacsiyad": 8442,
      "odo": 8443,
      "hadaad": 8444,
      "cabdis": 8445,
      "maleeshiyaatka": 8446,
      "xogo": 8447,
      "gudaheeda": 8448,
      "qaybood": 8449,
      "cong": 8450,
      "jiir": 8451,
      "diido": 8452,
      "xeeldheer": 8453,
      "habl": 8454,
      "xisbul": 8455,
      "safka": 8456,
      "booqan": 8457,
      "badaha": 8458,
      "##eysiin": 8459,
      "codbixinta": 8460,
      "xidha": 8461,
      "##aanyo": 8462,
      "garsoore": 8463,
      "dhasheen": 8464,
      "seeg": 8465,
      "shilin": 8466,
      "amr": 8467,
      "xiriiray": 8468,
      "ooy": 8469,
      "isdaba": 8470,
      "lan": 8471,
      "dowladnimo": 8472,
      "guurada": 8473,
      "baahiyey": 8474,
      "mareeb": 8475,
      "qaboo": 8476,
      "arkin": 8477,
      "65": 8478,
      "hooseeya": 8479,
      "jaamacad": 8480,
      "state": 8481,
      "qiimayn": 8482,
      "duqeymaha": 8483,
      "##akoob": 8484,
      "aday": 8485,
      "hall": 8486,
      "weydaar": 8487,
      "xagg": 8488,
      "##imaadka": 8489,
      "##addeenna": 8490,
      "tartiib": 8491,
      "qeybsan": 8492,
      "hasey": 8493,
      "midkii": 8494,
      "maqli": 8495,
      "##yinka": 8496,
      "kalig": 8497,
      "khasab": 8498,
      "meelood": 8499,
      "dabag": 8500,
      "abaartu": 8501,
      "shabeellada": 8502,
      "soomalida": 8503,
      "makka": 8504,
      "maag": 8505,
      "fasir": 8506,
      "rabnaa": 8507,
      "700": 8508,
      "kaaraan": 8509,
      "manda": 8510,
      "maalgel": 8511,
      "dhacdadii": 8512,
      "daroog": 8513,
      "qaadanayo": 8514,
      "wehlin": 8515,
      "##eeska": 8516,
      "##tarool": 8517,
      "cinwaan": 8518,
      "cabdisal": 8519,
      "faragelin": 8520,
      "##aabaha": 8521,
      "lihi": 8522,
      "qoomiy": 8523,
      "##kal": 8524,
      "galayo": 8525,
      "talooyinka": 8526,
      "ayaynu": 8527,
      "siinaya": 8528,
      "dush": 8529,
      "dhiirrigel": 8530,
      "biiraan": 8531,
      "habeenimo": 8532,
      "ogaad": 8533,
      "saameysay": 8534,
      "qalalaas": 8535,
      "gnn": 8536,
      "waqtigan": 8537,
      "unic": 8538,
      "hanjabaad": 8539,
      "huwan": 8540,
      "qayl": 8541,
      "caleema": 8542,
      "gudbaan": 8543,
      "isticmaalay": 8544,
      "cunaqabatay": 8545,
      "sameeyaa": 8546,
      "doodo": 8547,
      "warbixino": 8548,
      "read": 8549,
      "william": 8550,
      "weyday": 8551,
      "rwanda": 8552,
      "suura": 8553,
      "waaya": 8554,
      "fakar": 8555,
      "kg": 8556,
      "##iyaano": 8557,
      "mareegta": 8558,
      "deyr": 8559,
      "socdey": 8560,
      "hablaha": 8561,
      "mahadcelinayaa": 8562,
      "shakuur": 8563,
      "mol": 8564,
      "46": 8565,
      "saldhigyo": 8566,
      "kajir": 8567,
      "shabaabka": 8568,
      "##tel": 8569,
      "qaawan": 8570,
      "xannaan": 8571,
      "raacday": 8572,
      "abdir": 8573,
      "##eet": 8574,
      "kordhaya": 8575,
      "xabashida": 8576,
      "fay": 8577,
      "ceelasha": 8578,
      "dhexda": 8579,
      "maandoor": 8580,
      "rugta": 8581,
      "cabduq": 8582,
      "arg": 8583,
      "taageerto": 8584,
      "gay": 8585,
      "imf": 8586,
      "malays": 8587,
      "##inaayo": 8588,
      "##eysanaya": 8589,
      "chamions": 8590,
      "tirakoob": 8591,
      "gaabsaday": 8592,
      "##soomaal": 8593,
      "jose": 8594,
      "##eeni": 8595,
      "tirtir": 8596,
      "muwaadinka": 8597,
      "dari": 8598,
      "kormeerka": 8599,
      "gudida": 8600,
      "wareysiga": 8601,
      "wakaalada": 8602,
      "aadamaha": 8603,
      "daraya": 8604,
      "##tidgt": 8605,
      "qaxay": 8606,
      "yaaqshiid": 8607,
      "kalsoonaan": 8608,
      "unicef": 8609,
      "##ure": 8610,
      "abaabulay": 8611,
      "astaanta": 8612,
      "garyaqaan": 8613,
      "jaah": 8614,
      "##nal": 8615,
      "horaantii": 8616,
      "toosan": 8617,
      "daqiiqado": 8618,
      "jeceshahay": 8619,
      "##nin": 8620,
      "brussels": 8621,
      "nugul": 8622,
      "kin": 8623,
      "codad": 8624,
      "ni": 8625,
      "##iyaddu": 8626,
      "##amay": 8627,
      "mashquulsan": 8628,
      "##yadaas": 8629,
      "lasii": 8630,
      "she": 8631,
      "cunsur": 8632,
      "daaha": 8633,
      "goaankan": 8634,
      "faahfaahsan": 8635,
      "koobay": 8636,
      "rabitaan": 8637,
      "xamuulka": 8638,
      "faaido": 8639,
      "korkiisa": 8640,
      "kaco": 8641,
      "diyaargar": 8642,
      "##laah": 8643,
      "nidaamkii": 8644,
      "boobe": 8645,
      "##ox": 8646,
      "magaceeda": 8647,
      "yoonis": 8648,
      "wh": 8649,
      "saaxib": 8650,
      "gobaleedka": 8651,
      "xukuumadii": 8652,
      "maha": 8653,
      "caabudwaaq": 8654,
      "walbana": 8655,
      "ballanqaad": 8656,
      "ganacsig": 8657,
      "abaalmarin": 8658,
      "tahriibayaal": 8659,
      "kiim": 8660,
      "##adeedu": 8661,
      "suurtogal": 8662,
      "##sity": 8663,
      "kumannaan": 8664,
      "taan": 8665,
      "wganacsiga": 8666,
      "##lu": 8667,
      "cabashada": 8668,
      "amarkii": 8669,
      "ogaatay": 8670,
      "malyan": 8671,
      "eegto": 8672,
      "goban": 8673,
      "maansada": 8674,
      "##ahana": 8675,
      "jilicsan": 8676,
      "qaacida": 8677,
      "dhawaaqo": 8678,
      "get": 8679,
      "##leen": 8680,
      "calool": 8681,
      "qalabkan": 8682,
      "##bu": 8683,
      "eeday": 8684,
      "ayuuna": 8685,
      "##adha": 8686,
      "##shaa": 8687,
      "##aheed": 8688,
      "dhawayn": 8689,
      "sooh": 8690,
      "dhaariyay": 8691,
      "xawaal": 8692,
      "qoom": 8693,
      "rashiid": 8694,
      "##isi": 8695,
      "adeegsiga": 8696,
      "##aakir": 8697,
      "shaqadooda": 8698,
      "xukuumadiisa": 8699,
      "faransiis": 8700,
      "odin": 8701,
      "qalbig": 8702,
      "wareejisay": 8703,
      "##iyaddii": 8704,
      "qaybq": 8705,
      "kiin": 8706,
      "marayso": 8707,
      "shirqool": 8708,
      "##aaan": 8709,
      "49": 8710,
      "##imka": 8711,
      "culimo": 8712,
      "fasalka": 8713,
      "carabiga": 8714,
      "##madii": 8715,
      "##oobeen": 8716,
      "sonna": 8717,
      "celiyaan": 8718,
      "guddigu": 8719,
      "boqollaal": 8720,
      "land": 8721,
      "yaalo": 8722,
      "siinayaa": 8723,
      "saara": 8724,
      "dhoweyn": 8725,
      "baxayo": 8726,
      "abtir": 8727,
      "xaday": 8728,
      "##isolated": 8729,
      "naa": 8730,
      "loogana": 8731,
      "fogeyn": 8732,
      "farxaan": 8733,
      "haayo": 8734,
      "burburiyay": 8735,
      "xasilloonida": 8736,
      "odinga": 8737,
      "sababa": 8738,
      "cidi": 8739,
      "deegaanku": 8740,
      "wayday": 8741,
      "ambabaxay": 8742,
      "noocaan": 8743,
      "neceb": 8744,
      "deeqday": 8745,
      "murtiyeedka": 8746,
      "badi": 8747,
      "hambalyeeyay": 8748,
      "##imay": 8749,
      "shaqaalihii": 8750,
      "##ken": 8751,
      "qory": 8752,
      "xilsaaray": 8753,
      "##ole": 8754,
      "dejiyey": 8755,
      "tilmaamo": 8756,
      "##aradda": 8757,
      "indon": 8758,
      "tattoo": 8759,
      "deggen": 8760,
      "##jeer": 8761,
      "maalinba": 8762,
      "##guur": 8763,
      "qaylo": 8764,
      "qoddob": 8765,
      "##iiyey": 8766,
      "##ifka": 8767,
      "tuhunsan": 8768,
      "radiod": 8769,
      "##fiiq": 8770,
      "kgalbeed": 8771,
      "ereyga": 8772,
      "qodobkan": 8773,
      "human": 8774,
      "kaalmada": 8775,
      "kolkii": 8776,
      "lubnaan": 8777,
      "helno": 8778,
      "##jeex": 8779,
      "erayo": 8780,
      "qaarkoodna": 8781,
      "##xildhib": 8782,
      "udha": 8783,
      "maxaan": 8784,
      "##aara": 8785,
      "iyadana": 8786,
      "dhintaan": 8787,
      "jamhuuriga": 8788,
      "magc": 8789,
      "xanaaq": 8790,
      "isbeddelka": 8791,
      "degi": 8792,
      "doonno": 8793,
      "hogaaminta": 8794,
      "deeqda": 8795,
      "calaamadaha": 8796,
      "sara": 8797,
      "afgarad": 8798,
      "wasaarad": 8799,
      "qulqul": 8800,
      "xiriiro": 8801,
      "sidaasna": 8802,
      "dejiyay": 8803,
      "aasiya": 8804,
      "yaqaanay": 8805,
      "baahinta": 8806,
      "meelmar": 8807,
      "kanada": 8808,
      "aakhiro": 8809,
      "xasuuqa": 8810,
      "##sano": 8811,
      "yeelanayaan": 8812,
      "fak": 8813,
      "mogadishu": 8814,
      "##haa": 8815,
      "##rit": 8816,
      "noocyo": 8817,
      "kooxihii": 8818,
      "ciidammo": 8819,
      "hirgalinta": 8820,
      "ahmiyadda": 8821,
      "hogaamiyayaasha": 8822,
      "sugi": 8823,
      "sf": 8824,
      "##eembar": 8825,
      "radiodalsan": 8826,
      "shaqaaq": 8827,
      "dhameystirka": 8828,
      "wiilasha": 8829,
      "xildhibaanadii": 8830,
      "##udiin": 8831,
      "baaro": 8832,
      "isbar": 8833,
      "##media": 8834,
      "dill": 8835,
      "dhowraha": 8836,
      "soonka": 8837,
      "##araadka": 8838,
      "own": 8839,
      "fu": 8840,
      "hoolka": 8841,
      "taallo": 8842,
      "uniersity": 8843,
      "jeel": 8844,
      "##aasho": 8845,
      "eryay": 8846,
      "swt": 8847,
      "joogin": 8848,
      "kaceen": 8849,
      "dayr": 8850,
      "karan": 8851,
      "tareen": 8852,
      "##adayda": 8853,
      "sheekooyin": 8854,
      "##shi": 8855,
      "jannada": 8856,
      "ccasiis": 8857,
      "xogaha": 8858,
      "##yd": 8859,
      "waxbarashadda": 8860,
      "##dun": 8861,
      "dardaaran": 8862,
      "dhufatay": 8863,
      "##sar": 8864,
      "##ahiisa": 8865,
      "aloosan": 8866,
      "horena": 8867,
      "haweenku": 8868,
      "heesta": 8869,
      "##iyadd": 8870,
      "noqonaysa": 8871,
      "ajen": 8872,
      "astaamaha": 8873,
      "cabduqaadir": 8874,
      "dalkaan": 8875,
      "##inayso": 8876,
      "janaraal": 8877,
      "##jec": 8878,
      "bulshooyinka": 8879,
      "800": 8880,
      "nawaaxiga": 8881,
      "hurdada": 8882,
      "gaaj": 8883,
      "dawladii": 8884,
      "inaa": 8885,
      "dhagar": 8886,
      "taxadar": 8887,
      "dumarku": 8888,
      "dhuum": 8889,
      "raaj": 8890,
      "latal": 8891,
      "dhigtaan": 8892,
      "faallooyinka": 8893,
      "yuhuudda": 8894,
      "sak": 8895,
      "cabanaya": 8896,
      "foo": 8897,
      "jaarka": 8898,
      "##agana": 8899,
      "51": 8900,
      "##daad": 8901,
      "baahiso": 8902,
      "maqnaan": 8903,
      "adeegyo": 8904,
      "fadhiyey": 8905,
      "naxariistii": 8906,
      "sooc": 8907,
      "sheekha": 8908,
      "cawaaq": 8909,
      "shaqeyso": 8910,
      "cadaaw": 8911,
      "lif": 8912,
      "daawada": 8913,
      "hiigsiga": 8914,
      "sidaad": 8915,
      "sada": 8916,
      "maamuli": 8917,
      "qorshahan": 8918,
      "ajnabi": 8919,
      "bann": 8920,
      "hig": 8921,
      "fiidkii": 8922,
      "horteg": 8923,
      "baxaysa": 8924,
      "fogaan": 8925,
      "arrintu": 8926,
      "fududeeyo": 8927,
      "##niinka": 8928,
      "mata": 8929,
      "tababaraha": 8930,
      "silaanyo": 8931,
      "boggan": 8932,
      "naxariista": 8933,
      "sharaxaad": 8934,
      "barakeysan": 8935,
      "khubar": 8936,
      "5aad": 8937,
      "##naadaan": 8938,
      "kooxd": 8939,
      "fogaado": 8940,
      "bush": 8941,
      "ilaaliya": 8942,
      "arkaysaa": 8943,
      "nabadeynta": 8944,
      "qoraalo": 8945,
      "cabdikariim": 8946,
      "dhismeedka": 8947,
      "doodi": 8948,
      "qabtey": 8949,
      "islaan": 8950,
      "akhristayaasha": 8951,
      "shaqayso": 8952,
      "caddaan": 8953,
      "badbaadinta": 8954,
      "baaxadda": 8955,
      "eriter": 8956,
      "faderaalka": 8957,
      "waji": 8958,
      "dhisidda": 8959,
      "daraaddeed": 8960,
      "eu": 8961,
      "lada": 8962,
      "##eedkii": 8963,
      "cudurada": 8964,
      "shin": 8965,
      "qaaliga": 8966,
      "tira": 8967,
      "##ace": 8968,
      "wakiiladda": 8969,
      "nabadgalyo": 8970,
      "ciil": 8971,
      "shaakir": 8972,
      "safr": 8973,
      "##bixin": 8974,
      "char": 8975,
      "isbaheysiga": 8976,
      "bam": 8977,
      "omar": 8978,
      "helayaa": 8979,
      "iibsiga": 8980,
      "hijri": 8981,
      "dhaceyso": 8982,
      "dhiban": 8983,
      "falastiiniyiinta": 8984,
      "taxaabay": 8985,
      "ansixiyo": 8986,
      "shaqeeyey": 8987,
      "dhaqsiyaha": 8988,
      "sugo": 8989,
      "gant": 8990,
      "idaacaddu": 8991,
      "mut": 8992,
      "falkan": 8993,
[...]
